{
  "version": "1.0",
  "truncation": null,
  "padding": null,
  "added_tokens": [
    {
      "id": 0,
      "content": "<unk>",
      "single_word": false,
      "lstrip": false,
      "rstrip": false,
      "normalized": false,
      "special": true
    },
    {
      "id": 1,
      "content": "<pad>",
      "single_word": false,
      "lstrip": false,
      "rstrip": false,
      "normalized": false,
      "special": true
    },
    {
      "id": 2,
      "content": "<s>",
      "single_word": false,
      "lstrip": false,
      "rstrip": false,
      "normalized": false,
      "special": true
    },
    {
      "id": 3,
      "content": "</s>",
      "single_word": false,
      "lstrip": false,
      "rstrip": false,
      "normalized": false,
      "special": true
    },
    {
      "id": 4,
      "content": "<|user|>",
      "single_word": false,
      "lstrip": false,
      "rstrip": false,
      "normalized": false,
      "special": true
    },
    {
      "id": 5,
      "content": "<|assistant|>",
      "single_word": false,
      "lstrip": false,
      "rstrip": false,
      "normalized": false,
      "special": true
    }
  ],
  "normalizer": {
    "type": "Sequence",
    "normalizers": [
      {
        "type": "NFKC"
      }
    ]
  },
  "pre_tokenizer": {
    "type": "Whitespace"
  },
  "post_processor": null,
  "decoder": null,
  "model": {
    "type": "BPE",
    "dropout": null,
    "unk_token": "<unk>",
    "continuing_subword_prefix": null,
    "end_of_word_suffix": null,
    "fuse_unk": false,
    "byte_fallback": false,
    "ignore_merges": false,
    "vocab": {
      "<unk>": 0,
      "<pad>": 1,
      "<s>": 2,
      "</s>": 3,
      "<|user|>": 4,
      "<|assistant|>": 5,
      "!": 6,
      "\"": 7,
      "'": 8,
      "(": 9,
      ")": 10,
      ",": 11,
      "-": 12,
      ".": 13,
      "0": 14,
      "1": 15,
      "2": 16,
      "3": 17,
      "4": 18,
      "5": 19,
      "6": 20,
      "7": 21,
      "8": 22,
      "9": 23,
      ":": 24,
      ";": 25,
      "?": 26,
      "A": 27,
      "B": 28,
      "C": 29,
      "D": 30,
      "E": 31,
      "F": 32,
      "G": 33,
      "H": 34,
      "I": 35,
      "J": 36,
      "K": 37,
      "L": 38,
      "M": 39,
      "N": 40,
      "O": 41,
      "P": 42,
      "Q": 43,
      "R": 44,
      "S": 45,
      "T": 46,
      "U": 47,
      "V": 48,
      "W": 49,
      "X": 50,
      "Y": 51,
      "Z": 52,
      "a": 53,
      "b": 54,
      "c": 55,
      "d": 56,
      "e": 57,
      "f": 58,
      "g": 59,
      "h": 60,
      "i": 61,
      "j": 62,
      "k": 63,
      "l": 64,
      "m": 65,
      "n": 66,
      "o": 67,
      "p": 68,
      "q": 69,
      "r": 70,
      "s": 71,
      "t": 72,
      "u": 73,
      "v": 74,
      "w": 75,
      "x": 76,
      "y": 77,
      "z": 78,
      "À": 79,
      "Â": 80,
      "Ä": 81,
      "Æ": 82,
      "Ç": 83,
      "È": 84,
      "É": 85,
      "Ê": 86,
      "Î": 87,
      "Ô": 88,
      "×": 89,
      "Ü": 90,
      "ß": 91,
      "à": 92,
      "á": 93,
      "â": 94,
      "ã": 95,
      "ä": 96,
      "æ": 97,
      "ç": 98,
      "è": 99,
      "é": 100,
      "ê": 101,
      "ë": 102,
      "í": 103,
      "î": 104,
      "ï": 105,
      "ñ": 106,
      "ó": 107,
      "ô": 108,
      "ö": 109,
      "ø": 110,
      "ù": 111,
      "ú": 112,
      "û": 113,
      "ü": 114,
      "’": 115,
      "es": 116,
      "en": 117,
      "on": 118,
      "ai": 119,
      "ou": 120,
      "qu": 121,
      "de": 122,
      "le": 123,
      "an": 124,
      "re": 125,
      "eu": 126,
      "ent": 127,
      "er": 128,
      "et": 129,
      "pa": 130,
      "il": 131,
      "la": 132,
      "in": 133,
      "is": 134,
      "un": 135,
      "que": 136,
      "est": 137,
      "au": 138,
      "it": 139,
      "les": 140,
      "ait": 141,
      "ce": 142,
      "ais": 143,
      "or": 144,
      "te": 145,
      "ti": 146,
      "pr": 147,
      "tr": 148,
      "des": 149,
      "se": 150,
      "av": 151,
      "ch": 152,
      "om": 153,
      "euh": 154,
      "par": 155,
      "our": 156,
      "me": 157,
      "ar": 158,
      "al": 159,
      "ment": 160,
      "oi": 161,
      "si": 162,
      "qui": 163,
      "ant": 164,
      "pas": 165,
      "ur": 166,
      "ous": 167,
      "ne": 168,
      "ans": 169,
      "lu": 170,
      "ét": 171,
      "je": 172,
      "une": 173,
      "du": 174,
      "ont": 175,
      "com": 176,
      "el": 177,
      "di": 178,
      "tion": 179,
      "dé": 180,
      "dans": 181,
      "ça": 182,
      "at": 183,
      "pour": 184,
      "ri": 185,
      "li": 186,
      "ré": 187,
      "tou": 188,
      "tre": 189,
      "don": 190,
      "ci": 191,
      "con": 192,
      "mais": 193,
      "ra": 194,
      "os": 195,
      "plu": 196,
      "vous": 197,
      "su": 198,
      "eur": 199,
      "ois": 200,
      "as": 201,
      "ouv": 202,
      "ac": 203,
      "ès": 204,
      "mp": 205,
      "vi": 206,
      "ag": 207,
      "elle": 208,
      "oui": 209,
      "ec": 210,
      "peu": 211,
      "pu": 212,
      "sur": 213,
      "plus": 214,
      "donc": 215,
      "tout": 216,
      "and": 217,
      "fait": 218,
      "ée": 219,
      "ain": 220,
      "pro": 221,
      "res": 222,
      "vo": 223,
      "aire": 224,
      "son": 225,
      "end": 226,
      "um": 227,
      "était": 228,
      "ab": 229,
      "ation": 230,
      "és": 231,
      "tu": 232,
      "am": 233,
      "ils": 234,
      "ap": 235,
      "bi": 236,
      "ère": 237,
      "ors": 238,
      "avec": 239,
      "co": 240,
      "ff": 241,
      "bon": 242,
      "lle": 243,
      "ex": 244,
      "oir": 245,
      "mê": 246,
      "là": 247,
      "ons": 248,
      "mi": 249,
      "té": 250,
      "comme": 251,
      "che": 252,
      "fin": 253,
      "gr": 254,
      "ter": 255,
      "puis": 256,
      "us": 257,
      "aux": 258,
      "ces": 259,
      "ille": 260,
      "même": 261,
      "per": 262,
      "hum": 263,
      "mon": 264,
      "ma": 265,
      "eux": 266,
      "ie": 267,
      "bien": 268,
      "aut": 269,
      "ens": 270,
      "cu": 271,
      "ux": 272,
      "sont": 273,
      "non": 274,
      "ah": 275,
      "po": 276,
      "aient": 277,
      "parce": 278,
      "ge": 279,
      "ve": 280,
      "he": 281,
      "ort": 282,
      "ser": 283,
      "jour": 284,
      "avait": 285,
      "alors": 286,
      "ette": 287,
      "mes": 288,
      "mo": 289,
      "cou": 290,
      "né": 291,
      "lui": 292,
      "quand": 293,
      "ni": 294,
      "ers": 295,
      "nous": 296,
      "sa": 297,
      "ité": 298,
      "ins": 299,
      "lo": 300,
      "leur": 301,
      "ouais": 302,
      "cr": 303,
      "pe": 304,
      "so": 305,
      "être": 306,
      "ion": 307,
      "quoi": 308,
      "dis": 309,
      "moi": 310,
      "lé": 311,
      "très": 312,
      "faire": 313,
      "ques": 314,
      "quel": 315,
      "ite": 316,
      "eau": 317,
      "deux": 318,
      "dire": 319,
      "près": 320,
      "ses": 321,
      "tes": 322,
      "ir": 323,
      "hein": 324,
      "gu": 325,
      "dit": 326,
      "ez": 327,
      "aus": 328,
      "ale": 329,
      "im": 330,
      "peut": 331,
      "man": 332,
      "ran": 333,
      "op": 334,
      "trav": 335,
      "été": 336,
      "ro": 337,
      "mé": 338,
      "ble": 339,
      "cette": 340,
      "pet": 341,
      "pos": 342,
      "Le": 343,
      "ord": 344,
      "for": 345,
      "va": 346,
      "ut": 347,
      "parti": 348,
      "gé": 349,
      "aussi": 350,
      "bre": 351,
      "age": 352,
      "ine": 353,
      "Il": 354,
      "tres": 355,
      "mar": 356,
      "fi": 357,
      "no": 358,
      "enfin": 359,
      "rai": 360,
      "pre": 361,
      "coup": 362,
      "cont": 363,
      "temp": 364,
      "où": 365,
      "ence": 366,
      "entre": 367,
      "ven": 368,
      "cer": 369,
      "sé": 370,
      "hé": 371,
      "après": 372,
      "eurs": 373,
      "comm": 374,
      "faut": 375,
      "met": 376,
      "ten": 377,
      "pé": 378,
      "ail": 379,
      "petit": 380,
      "int": 381,
      "sion": 382,
      "beau": 383,
      "pré": 384,
      "ler": 385,
      "ard": 386,
      "ben": 387,
      "nes": 388,
      "lan": 389,
      "ants": 390,
      "der": 391,
      "ca": 392,
      "main": 393,
      "temps": 394,
      "ph": 395,
      "nom": 396,
      "avoir": 397,
      "vrai": 398,
      "cher": 399,
      "suis": 400,
      "ilà": 401,
      "jours": 402,
      "fois": 403,
      "ense": 404,
      "ante": 405,
      "trouv": 406,
      "lè": 407,
      "lon": 408,
      "voilà": 409,
      "premi": 410,
      "tous": 411,
      "ique": 412,
      "ction": 413,
      "emp": 414,
      "ing": 415,
      "rent": 416,
      "st": 417,
      "ure": 418,
      "ver": 419,
      "La": 420,
      "pi": 421,
      "ue": 422,
      "bli": 423,
      "ot": 424,
      "beaucoup": 425,
      "cé": 426,
      "cour": 427,
      "ici": 428,
      "autre": 429,
      "able": 430,
      "aille": 431,
      "oc": 432,
      "ance": 433,
      "conn": 434,
      "pris": 435,
      "lais": 436,
      "comp": 437,
      "prend": 438,
      "ad": 439,
      "sais": 440,
      "app": 441,
      "person": 442,
      "cent": 443,
      "aine": 444,
      "jus": 445,
      "ner": 446,
      "vie": 447,
      "fon": 448,
      "trois": 449,
      "ig": 450,
      "bou": 451,
      "car": 452,
      "part": 453,
      "tement": 454,
      "diff": 455,
      "cin": 456,
      "vent": 457,
      "fais": 458,
      "min": 459,
      "mis": 460,
      "sent": 461,
      "acc": 462,
      "tru": 463,
      "ist": 464,
      "En": 465,
      "ose": 466,
      "II": 467,
      "jeu": 468,
      "mat": 469,
      "asse": 470,
      "avez": 471,
      "née": 472,
      "ème": 473,
      "mal": 474,
      "iv": 475,
      "arri": 476,
      "autres": 477,
      "gens": 478,
      "imp": 479,
      "ts": 480,
      "tique": 481,
      "oire": 482,
      "pla": 483,
      "core": 484,
      "vé": 485,
      "travail": 486,
      "ments": 487,
      "pend": 488,
      "rer": 489,
      "ob": 490,
      "toujours": 491,
      "lait": 492,
      "encore": 493,
      "em": 494,
      "tri": 495,
      "rais": 496,
      "itu": 497,
      "fa": 498,
      "voir": 499,
      "ang": 500,
      "mer": 501,
      "rest": 502,
      "vou": 503,
      "Les": 504,
      "Je": 505,
      "chose": 506,
      "ég": 507,
      "cert": 508,
      "pouv": 509,
      "sans": 510,
      "uit": 511,
      "att": 512,
      "vis": 513,
      "eure": 514,
      "jou": 515,
      "alement": 516,
      "voy": 517,
      "ren": 518,
      "quat": 519,
      "tour": 520,
      "quelque": 521,
      "monde": 522,
      "sou": 523,
      "accord": 524,
      "pp": 525,
      "gar": 526,
      "ol": 527,
      "prés": 528,
      "elles": 529,
      "rait": 530,
      "hom": 531,
      "inté": 532,
      "avant": 533,
      "iti": 534,
      "ations": 535,
      "Ch": 536,
      "bah": 537,
      "pres": 538,
      "moins": 539,
      "grand": 540,
      "hm": 541,
      "comment": 542,
      "ct": 543,
      "lis": 544,
      "aî": 545,
      "cor": 546,
      "rien": 547,
      "fran": 548,
      "enf": 549,
      "tant": 550,
      "aires": 551,
      "toute": 552,
      "tenant": 553,
      "exemp": 554,
      "ente": 555,
      "ents": 556,
      "jet": 557,
      "quatre": 558,
      "lement": 559,
      "pendant": 560,
      "inter": 561,
      "oses": 562,
      "urs": 563,
      "ées": 564,
      "cul": 565,
      "Fran": 566,
      "dou": 567,
      "point": 568,
      "seu": 569,
      "cons": 570,
      "do": 571,
      "alis": 572,
      "jà": 573,
      "sous": 574,
      "vers": 575,
      "déjà": 576,
      "choses": 577,
      "leurs": 578,
      "gne": 579,
      "prin": 580,
      "cla": 581,
      "heure": 582,
      "soit": 583,
      "dev": 584,
      "br": 585,
      "vraiment": 586,
      "eff": 587,
      "dont": 588,
      "souv": 589,
      "orte": 590,
      "nées": 591,
      "maintenant": 592,
      "nouv": 593,
      "mil": 594,
      "PII": 595,
      "cha": 596,
      "suite": 597,
      "trop": 598,
      "pon": 599,
      "avais": 600,
      "soci": 601,
      "étaient": 602,
      "vre": 603,
      "géné": 604,
      "publi": 605,
      "exemple": 606,
      "enne": 607,
      "Par": 608,
      "ze": 609,
      "ête": 610,
      "sait": 611,
      "erre": 612,
      "ja": 613,
      "tra": 614,
      "mom": 615,
      "ving": 616,
      "mont": 617,
      "assez": 618,
      "ville": 619,
      "roi": 620,
      "gra": 621,
      "ys": 622,
      "prob": 623,
      "sem": 624,
      "cré": 625,
      "pense": 626,
      "ton": 627,
      "hab": 628,
      "prendre": 629,
      "mag": 630,
      "ères": 631,
      "ui": 632,
      "fil": 633,
      "dix": 634,
      "ains": 635,
      "cinq": 636,
      "vais": 637,
      "vingt": 638,
      "fé": 639,
      "rég": 640,
      "Ce": 641,
      "diffé": 642,
      "toutes": 643,
      "grou": 644,
      "dem": 645,
      "ôt": 646,
      "contre": 647,
      "ron": 648,
      "ions": 649,
      "cle": 650,
      "gn": 651,
      "prof": 652,
      "th": 653,
      "veux": 654,
      "fam": 655,
      "oy": 656,
      "sin": 657,
      "ger": 658,
      "lit": 659,
      "tat": 660,
      "ches": 661,
      "crois": 662,
      "depuis": 663,
      "année": 664,
      "ture": 665,
      "mu": 666,
      "aller": 667,
      "chez": 668,
      "ène": 669,
      "ures": 670,
      "rou": 671,
      "dre": 672,
      "tions": 673,
      "gran": 674,
      "ités": 675,
      "pron": 676,
      "premier": 677,
      "sy": 678,
      "cs": 679,
      "jamais": 680,
      "ber": 681,
      "bas": 682,
      "sû": 683,
      "moment": 684,
      "dent": 685,
      "cri": 686,
      "Mar": 687,
      "ges": 688,
      "soi": 689,
      "fer": 690,
      "alle": 691,
      "lors": 692,
      "bles": 693,
      "cas": 694,
      "heur": 695,
      "pl": 696,
      "ouver": 697,
      "pec": 698,
      "thé": 699,
      "vois": 700,
      "gue": 701,
      "derni": 702,
      "its": 703,
      "personne": 704,
      "nent": 705,
      "problè": 706,
      "pt": 707,
      "iste": 708,
      "France": 709,
      "vu": 710,
      "cô": 711,
      "oun": 712,
      "produ": 713,
      "étu": 714,
      "partie": 715,
      "veu": 716,
      "deman": 717,
      "oh": 718,
      "vient": 719,
      "log": 720,
      "col": 721,
      "çon": 722,
      "aff": 723,
      "ition": 724,
      "tel": 725,
      "quelques": 726,
      "Qu": 727,
      "ilis": 728,
      "étais": 729,
      "sor": 730,
      "sant": 731,
      "lar": 732,
      "tive": 733,
      "notre": 734,
      "travaille": 735,
      "rapp": 736,
      "première": 737,
      "connais": 738,
      "bé": 739,
      "ju": 740,
      "pronoun": 741,
      "pronounce": 742,
      "Elle": 743,
      "sus": 744,
      "Un": 745,
      "be": 746,
      "ature": 747,
      "çais": 748,
      "éco": 749,
      "dro": 750,
      "ves": 751,
      "cation": 752,
      "mille": 753,
      "cours": 754,
      "ier": 755,
      "hist": 756,
      "éri": 757,
      "sieurs": 758,
      "endre": 759,
      "nombre": 760,
      "sûr": 761,
      "tif": 762,
      "contr": 763,
      "mbre": 764,
      "trouve": 765,
      "présent": 766,
      "char": 767,
      "mettre": 768,
      "ût": 769,
      "ième": 770,
      "rie": 771,
      "père": 772,
      "voit": 773,
      "enfants": 774,
      "différent": 775,
      "nor": 776,
      "rê": 777,
      "reg": 778,
      "pren": 779,
      "ple": 780,
      "pri": 781,
      "êtes": 782,
      "ages": 783,
      "veau": 784,
      "ire": 785,
      "péri": 786,
      "fr": 787,
      "années": 788,
      "tiques": 789,
      "jusqu": 790,
      "pli": 791,
      "votre": 792,
      "ta": 793,
      "ché": 794,
      "déb": 795,
      "nos": 796,
      "mois": 797,
      "can": 798,
      "ailleurs": 799,
      "import": 800,
      "groupe": 801,
      "trait": 802,
      "place": 803,
      "ay": 804,
      "sement": 805,
      "plusieurs": 806,
      "côté": 807,
      "),": 808,
      "intéres": 809,
      "cli": 810,
      "cal": 811,
      "eh": 812,
      "éle": 813,
      "nement": 814,
      "cl": 815,
      "cet": 816,
      "fem": 817,
      "sique": 818,
      "ras": 819,
      "voi": 820,
      "homme": 821,
      "to": 822,
      "également": 823,
      "ban": 824,
      "niveau": 825,
      "fut": 826,
      "avaient": 827,
      "crit": 828,
      "français": 829,
      "An": 830,
      "illes": 831,
      "long": 832,
      "venir": 833,
      "bes": 834,
      "port": 835,
      "quar": 836,
      "allait": 837,
      "appel": 838,
      "vel": 839,
      "ainsi": 840,
      "Ne": 841,
      "ral": 842,
      "gros": 843,
      "ration": 844,
      "ds": 845,
      "heures": 846,
      "sort": 847,
      "utilis": 848,
      "let": 849,
      "da": 850,
      "passe": 851,
      ").": 852,
      "dom": 853,
      "épo": 854,
      "quest": 855,
      "Et": 856,
      "On": 857,
      "lent": 858,
      "cela": 859,
      "souvent": 860,
      "off": 861,
      "form": 862,
      "partir": 863,
      "ly": 864,
      "siè": 865,
      "alité": 866,
      "tom": 867,
      "princi": 868,
      "neu": 869,
      "rit": 870,
      "cat": 871,
      "ach": 872,
      "pens": 873,
      "Paris": 874,
      "veut": 875,
      "constru": 876,
      "ori": 877,
      "tier": 878,
      "volu": 879,
      "puisque": 880,
      "Au": 881,
      "idé": 882,
      "hui": 883,
      "anci": 884,
      "déc": 885,
      "oli": 886,
      "fort": 887,
      "pare": 888,
      "cep": 889,
      "petite": 890,
      "profes": 891,
      "bu": 892,
      "huit": 893,
      "air": 894,
      "particu": 895,
      "époque": 896,
      "parler": 897,
      "grande": 898,
      "ieu": 899,
      "appar": 900,
      "contin": 901,
      "nation": 902,
      "aime": 903,
      "ensem": 904,
      "jeunes": 905,
      "all": 906,
      "Ar": 907,
      "bum": 908,
      "ellement": 909,
      "servi": 910,
      "faisait": 911,
      "permet": 912,
      "bar": 913,
      "prit": 914,
      "école": 915,
      "appelle": 916,
      "gan": 917,
      "tent": 918,
      "album": 919,
      "In": 920,
      "vit": 921,
      "èrent": 922,
      "quer": 923,
      "aines": 924,
      "mani": 925,
      "mort": 926,
      "ode": 927,
      "pouvoir": 928,
      "ba": 929,
      "trans": 930,
      "Mais": 931,
      "évi": 932,
      "commen": 933,
      "sorti": 934,
      "vin": 935,
      "pays": 936,
      "lier": 937,
      "fonction": 938,
      "façon": 939,
      "chi": 940,
      "lig": 941,
      "toi": 942,
      "ceux": 943,
      "pes": 944,
      "aint": 945,
      "commun": 946,
      "trouver": 947,
      "som": 948,
      "sible": 949,
      "répon": 950,
      "donner": 951,
      "famille": 952,
      "ép": 953,
      "teau": 954,
      "parle": 955,
      "inst": 956,
      "bres": 957,
      "chan": 958,
      "personnes": 959,
      "chaque": 960,
      "doit": 961,
      "ru": 962,
      "celui": 963,
      "rom": 964,
      "De": 965,
      "jeune": 966,
      "na": 967,
      "six": 968,
      "out": 969,
      "amment": 970,
      "mieux": 971,
      "ise": 972,
      "ass": 973,
      "moy": 974,
      "velop": 975,
      "vont": 976,
      "avons": 977,
      "rée": 978,
      "tar": 979,
      "tête": 980,
      "suiv": 981,
      "clas": 982,
      "enti": 983,
      "organ": 984,
      "pourquoi": 985,
      "act": 986,
      "tôt": 987,
      "passer": 988,
      "lieu": 989,
      "savoir": 990,
      "anim": 991,
      "ili": 992,
      "maison": 993,
      "problème": 994,
      "histoire": 995,
      "era": 996,
      "occu": 997,
      "ls": 998,
      "men": 999,
      "expli": 1000,
      "ement": 1001,
      "yer": 1002,
      "lation": 1003,
      "Jean": 1004,
      "aît": 1005,
      "font": 1006,
      "nature": 1007,
      "ances": 1008,
      "ines": 1009,
      "cur": 1010,
      "telle": 1011,
      "dur": 1012,
      "hi": 1013,
      "jourd": 1014,
      "New": 1015,
      "go": 1016,
      "peux": 1017,
      "essa": 1018,
      "ris": 1019,
      "ret": 1020,
      "val": 1021,
      "Com": 1022,
      "mère": 1023,
      "passé": 1024,
      "ales": 1025,
      "solu": 1026,
      "ensemble": 1027,
      "qué": 1028,
      "quelle": 1029,
      "tiv": 1030,
      "sieur": 1031,
      "pose": 1032,
      "femme": 1033,
      "Tes": 1034,
      "celle": 1035,
      "phy": 1036,
      "por": 1037,
      "soir": 1038,
      "orig": 1039,
      "terre": 1040,
      "compte": 1041,
      "reste": 1042,
      "lant": 1043,
      "simp": 1044,
      "héma": 1045,
      "question": 1046,
      "gent": 1047,
      "lles": 1048,
      "aujourd": 1049,
      "chant": 1050,
      "Tesla": 1051,
      "dessus": 1052,
      "ivers": 1053,
      "région": 1054,
      "pect": 1055,
      "tech": 1056,
      "mathéma": 1057,
      "ros": 1058,
      "tient": 1059,
      "not": 1060,
      "dévelop": 1061,
      "surtout": 1062,
      "neuf": 1063,
      "tis": 1064,
      "ensuite": 1065,
      "rés": 1066,
      "sept": 1067,
      "bat": 1068,
      "recher": 1069,
      "univers": 1070,
      "liv": 1071,
      "action": 1072,
      "rapport": 1073,
      ",.": 1074,
      "bor": 1075,
      "sance": 1076,
      "lez": 1077,
      "donne": 1078,
      "ies": 1079,
      "oin": 1080,
      "devant": 1081,
      "sci": 1082,
      "spé": 1083,
      "tin": 1084,
      "ôle": 1085,
      "mari": 1086,
      "bour": 1087,
      "sul": 1088,
      "èrement": 1089,
      "télé": 1090,
      "prise": 1091,
      "général": 1092,
      "ateur": 1093,
      "début": 1094,
      "plan": 1095,
      "plutôt": 1096,
      "hommes": 1097,
      "blan": 1098,
      "étr": 1099,
      "feu": 1100,
      "sera": 1101,
      "nu": 1102,
      "rue": 1103,
      "État": 1104,
      "écri": 1105,
      "pra": 1106,
      "commer": 1107,
      "milli": 1108,
      "personn": 1109,
      "Dans": 1110,
      "sens": 1111,
      "pression": 1112,
      "demande": 1113,
      "haut": 1114,
      "forme": 1115,
      "petits": 1116,
      "cit": 1117,
      "ennent": 1118,
      "onn": 1119,
      "sions": 1120,
      "organis": 1121,
      "spéci": 1122,
      "antes": 1123,
      "siècle": 1124,
      "ck": 1125,
      "quin": 1126,
      "regar": 1127,
      "serait": 1128,
      "ga": 1129,
      "gen": 1130,
      "obli": 1131,
      "endu": 1132,
      "équi": 1133,
      "élé": 1134,
      "ari": 1135,
      "étant": 1136,
      "tivement": 1137,
      "const": 1138,
      "arrive": 1139,
      "seul": 1140,
      "théor": 1141,
      "fille": 1142,
      "Or": 1143,
      "Saint": 1144,
      "loi": 1145,
      "demment": 1146,
      "Mon": 1147,
      "justement": 1148,
      "cteur": 1149,
      "Al": 1150,
      "dét": 1151,
      "pie": 1152,
      "voulez": 1153,
      "gag": 1154,
      "ète": 1155,
      "aurait": 1156,
      "bonne": 1157,
      "mot": 1158,
      "droit": 1159,
      "use": 1160,
      "mach": 1161,
      "Une": 1162,
      "trente": 1163,
      "consi": 1164,
      "ables": 1165,
      "fond": 1166,
      "principa": 1167,
      "vite": 1168,
      "ali": 1169,
      "venu": 1170,
      "ilité": 1171,
      "monsieur": 1172,
      "bo": 1173,
      "clu": 1174,
      "tard": 1175,
      "abord": 1176,
      "médi": 1177,
      "senti": 1178,
      "pte": 1179,
      "auc": 1180,
      "iles": 1181,
      "dessin": 1182,
      "gues": 1183,
      "position": 1184,
      "effec": 1185,
      "formation": 1186,
      "continu": 1187,
      "cité": 1188,
      "sour": 1189,
      "èce": 1190,
      "rière": 1191,
      "Char": 1192,
      "grands": 1193,
      "fallait": 1194,
      "enseig": 1195,
      "icile": 1196,
      "étudi": 1197,
      "cée": 1198,
      "vas": 1199,
      "indi": 1200,
      "suc": 1201,
      "travailler": 1202,
      "évidemment": 1203,
      "notamment": 1204,
      "cap": 1205,
      "yeux": 1206,
      "série": 1207,
      "quelqu": 1208,
      "fau": 1209,
      "iques": 1210,
      "ences": 1211,
      "ets": 1212,
      "tex": 1213,
      "prom": 1214,
      "guerre": 1215,
      "certains": 1216,
      "aître": 1217,
      "table": 1218,
      "dus": 1219,
      "els": 1220,
      "réf": 1221,
      "peuvent": 1222,
      "dernier": 1223,
      "ty": 1224,
      "pass": 1225,
      "tit": 1226,
      "qua": 1227,
      "connu": 1228,
      "voyez": 1229,
      "Cos": 1230,
      "dra": 1231,
      "euse": 1232,
      "illa": 1233,
      "isme": 1234,
      "prim": 1235,
      "généra": 1236,
      "élec": 1237,
      "olog": 1238,
      "éch": 1239,
      "truc": 1240,
      "arriv": 1241,
      "semb": 1242,
      "Star": 1243,
      "écou": 1244,
      "maî": 1245,
      "ordin": 1246,
      "bout": 1247,
      "allez": 1248,
      "situ": 1249,
      "envie": 1250,
      "retour": 1251,
      "secon": 1252,
      "rique": 1253,
      "dition": 1254,
      "Con": 1255,
      "mit": 1256,
      "ogra": 1257,
      "ètres": 1258,
      "téri": 1259,
      "cess": 1260,
      "regard": 1261,
      "Lu": 1262,
      "Su": 1263,
      "itude": 1264,
      "écrit": 1265,
      "demi": 1266,
      "commence": 1267,
      "raison": 1268,
      "Her": 1269,
      "cy": 1270,
      "vue": 1271,
      "remp": 1272,
      "châ": 1273,
      "arti": 1274,
      "donné": 1275,
      "vol": 1276,
      "mêmes": 1277,
      "habit": 1278,
      "idée": 1279,
      "mor": 1280,
      "avent": 1281,
      "préc": 1282,
      "juste": 1283,
      "pareil": 1284,
      "nuit": 1285,
      "tait": 1286,
      "réalis": 1287,
      "cents": 1288,
      "nouveau": 1289,
      "ore": 1290,
      "sau": 1291,
      "espa": 1292,
      "iss": 1293,
      "viennent": 1294,
      "anger": 1295,
      "Si": 1296,
      "fant": 1297,
      "envi": 1298,
      "projet": 1299,
      "loge": 1300,
      "deuxième": 1301,
      "caet": 1302,
      "film": 1303,
      "techni": 1304,
      "mai": 1305,
      "quante": 1306,
      "base": 1307,
      "caetera": 1308,
      "opé": 1309,
      "tenir": 1310,
      "important": 1311,
      "dres": 1312,
      "fit": 1313,
      "difficile": 1314,
      "Cosette": 1315,
      "plais": 1316,
      "rence": 1317,
      "ul": 1318,
      "quit": 1319,
      "arrê": 1320,
      "déci": 1321,
      "sujet": 1322,
      "propos": 1323,
      "ib": 1324,
      "ps": 1325,
      "xante": 1326,
      "parents": 1327,
      "suff": 1328,
      "capa": 1329,
      "fs": 1330,
      "sc": 1331,
      "possible": 1332,
      "soixante": 1333,
      "ok": 1334,
      "serv": 1335,
      "plein": 1336,
      "Ph": 1337,
      "fac": 1338,
      "âce": 1339,
      "élè": 1340,
      "rez": 1341,
      "ork": 1342,
      "chois": 1343,
      "popu": 1344,
      "syst": 1345,
      "longtemps": 1346,
      "besoin": 1347,
      "manière": 1348,
      "fou": 1349,
      "lée": 1350,
      "rant": 1351,
      "uvre": 1352,
      "autour": 1353,
      "porte": 1354,
      "cinquante": 1355,
      "emb": 1356,
      "problèmes": 1357,
      "dès": 1358,
      "nant": 1359,
      "énor": 1360,
      "compa": 1361,
      "eaux": 1362,
      "enir": 1363,
      "dépend": 1364,
      "super": 1365,
      "amis": 1366,
      "aper": 1367,
      "langue": 1368,
      "prix": 1369,
      "rela": 1370,
      "actu": 1371,
      "autant": 1372,
      "travers": 1373,
      "pouvait": 1374,
      "Cette": 1375,
      "Val": 1376,
      "gré": 1377,
      "èle": 1378,
      "évolu": 1379,
      "faites": 1380,
      "illet": 1381,
      "attend": 1382,
      "considé": 1383,
      "istes": 1384,
      "dés": 1385,
      "condu": 1386,
      "activ": 1387,
      "travaux": 1388,
      "presque": 1389,
      "savez": 1390,
      "journ": 1391,
      "certaine": 1392,
      "cam": 1393,
      "sig": 1394,
      "lus": 1395,
      "abri": 1396,
      "amour": 1397,
      "cro": 1398,
      "public": 1399,
      "quinze": 1400,
      "mée": 1401,
      "chac": 1402,
      "meille": 1403,
      "roy": 1404,
      "princes": 1405,
      "vos": 1406,
      "esp": 1407,
      "esprit": 1408,
      "annon": 1409,
      "nelle": 1410,
      "supp": 1411,
      "propre": 1412,
      "faci": 1413,
      "profession": 1414,
      "représent": 1415,
      "inf": 1416,
      "seule": 1417,
      "change": 1418,
      "tron": 1419,
      "terr": 1420,
      "hors": 1421,
      "mét": 1422,
      "grâce": 1423,
      "imag": 1424,
      "oph": 1425,
      "semble": 1426,
      "Lon": 1427,
      "lot": 1428,
      "loin": 1429,
      "matin": 1430,
      "champ": 1431,
      "sommes": 1432,
      "quant": 1433,
      "étab": 1434,
      "ouvri": 1435,
      "petites": 1436,
      "face": 1437,
      "société": 1438,
      "service": 1439,
      "environ": 1440,
      "ate": 1441,
      "cre": 1442,
      "dest": 1443,
      "four": 1444,
      "métier": 1445,
      "phot": 1446,
      "certain": 1447,
      "dernière": 1448,
      "belle": 1449,
      "fils": 1450,
      "rôle": 1451,
      "labor": 1452,
      "conse": 1453,
      "associ": 1454,
      "vivre": 1455,
      "mouv": 1456,
      "exist": 1457,
      "iez": 1458,
      "ayant": 1459,
      "Gu": 1460,
      "gle": 1461,
      "mand": 1462,
      "ril": 1463,
      "rend": 1464,
      "sal": 1465,
      "demain": 1466,
      "itions": 1467,
      "nouvelle": 1468,
      "particuli": 1469,
      "Pi": 1470,
      "Pour": 1471,
      "bâ": 1472,
      "cès": 1473,
      "of": 1474,
      "ouis": 1475,
      "reç": 1476,
      "profon": 1477,
      "cue": 1478,
      "milieu": 1479,
      "pin": 1480,
      "trou": 1481,
      "vier": 1482,
      "améri": 1483,
      "disait": 1484,
      "forcé": 1485,
      "anglais": 1486,
      "sinon": 1487,
      "pratique": 1488,
      "cau": 1489,
      "seur": 1490,
      "prê": 1491,
      "parfois": 1492,
      "disons": 1493,
      "lég": 1494,
      "ailles": 1495,
      "mise": 1496,
      "ien": 1497,
      "las": 1498,
      "mala": 1499,
      "effet": 1500,
      "améric": 1501,
      "év": 1502,
      "argent": 1503,
      "conf": 1504,
      "rapi": 1505,
      "mission": 1506,
      "musique": 1507,
      "physique": 1508,
      "raient": 1509,
      "âge": 1510,
      "éro": 1511,
      "desc": 1512,
      "nel": 1513,
      "compos": 1514,
      "concer": 1515,
      "ray": 1516,
      "finalement": 1517,
      "derrière": 1518,
      "pier": 1519,
      "gram": 1520,
      "semaine": 1521,
      "For": 1522,
      "ave": 1523,
      "arch": 1524,
      "réus": 1525,
      "cir": 1526,
      "fique": 1527,
      "Re": 1528,
      "mons": 1529,
      "onne": 1530,
      "art": 1531,
      "cier": 1532,
      "matéri": 1533,
      "lise": 1534,
      "culture": 1535,
      "système": 1536,
      "déf": 1537,
      "ats": 1538,
      "polit": 1539,
      "ctions": 1540,
      "attent": 1541,
      "présente": 1542,
      "essay": 1543,
      "mathématiques": 1544,
      "og": 1545,
      "ole": 1546,
      "allé": 1547,
      "rage": 1548,
      "force": 1549,
      "certaines": 1550,
      "pous": 1551,
      "tot": 1552,
      "pagne": 1553,
      "atte": 1554,
      "andis": 1555,
      "ami": 1556,
      "nécess": 1557,
      "sol": 1558,
      "souff": 1559,
      "seulement": 1560,
      "Eur": 1561,
      "doi": 1562,
      "lou": 1563,
      "sorte": 1564,
      "veille": 1565,
      "minu": 1566,
      "francs": 1567,
      "différents": 1568,
      "septe": 1569,
      "demand": 1570,
      "princesse": 1571,
      "septembre": 1572,
      "Tr": 1573,
      "lin": 1574,
      "ope": 1575,
      "dirais": 1576,
      "endro": 1577,
      "Ils": 1578,
      "intin": 1579,
      "client": 1580,
      "quarante": 1581,
      "forcément": 1582,
      "peur": 1583,
      "aura": 1584,
      "réun": 1585,
      "résul": 1586,
      "États": 1587,
      "Se": 1588,
      "Tintin": 1589,
      "mau": 1590,
      "dement": 1591,
      "défin": 1592,
      "proche": 1593,
      "complè": 1594,
      "sym": 1595,
      "ôme": 1596,
      "lex": 1597,
      "grandes": 1598,
      "dame": 1599,
      "château": 1600,
      "bal": 1601,
      "net": 1602,
      "ert": 1603,
      "radi": 1604,
      "trouvé": 1605,
      "recherche": 1606,
      "chacun": 1607,
      "Louis": 1608,
      "York": 1609,
      "but": 1610,
      "devient": 1611,
      "atoire": 1612,
      "filles": 1613,
      "Hergé": 1614,
      "centre": 1615,
      "aide": 1616,
      "scène": 1617,
      "num": 1618,
      "ess": 1619,
      "quent": 1620,
      "absolu": 1621,
      "amen": 1622,
      "premiers": 1623,
      "lorsqu": 1624,
      "regis": 1625,
      "jan": 1626,
      "my": 1627,
      "phé": 1628,
      "ry": 1629,
      "niz": 1630,
      "atta": 1631,
      "offici": 1632,
      "origine": 1633,
      "théorie": 1634,
      "ibniz": 1635,
      "ade": 1636,
      "bois": 1637,
      "oubli": 1638,
      "minis": 1639,
      "vision": 1640,
      "âtre": 1641,
      "entend": 1642,
      "compren": 1643,
      "mots": 1644,
      "tellement": 1645,
      "résultat": 1646,
      "her": 1647,
      "mun": 1648,
      "sit": 1649,
      "édi": 1650,
      "laquelle": 1651,
      "tro": 1652,
      "matique": 1653,
      "venait": 1654,
      "études": 1655,
      "période": 1656,
      "ograph": 1657,
      "Ber": 1658,
      "gouver": 1659,
      "pit": 1660,
      "rè": 1661,
      "ill": 1662,
      "inv": 1663,
      "oix": 1664,
      "Leibniz": 1665,
      "marche": 1666,
      "tribu": 1667,
      "millions": 1668,
      "genre": 1669,
      "Orlé": 1670,
      "ér": 1671,
      "pal": 1672,
      "état": 1673,
      "commune": 1674,
      "nombreux": 1675,
      "intéressant": 1676,
      "élèves": 1677,
      "Des": 1678,
      "one": 1679,
      "aise": 1680,
      "viv": 1681,
      "croy": 1682,
      "partici": 1683,
      "occa": 1684,
      "corps": 1685,
      "ception": 1686,
      "ich": 1687,
      "entendu": 1688,
      "déce": 1689,
      "livre": 1690,
      "colle": 1691,
      "peine": 1692,
      "objet": 1693,
      "itié": 1694,
      "Cor": 1695,
      "fur": 1696,
      "tés": 1697,
      "usement": 1698,
      "ilos": 1699,
      "avi": 1700,
      "acle": 1701,
      "lorsque": 1702,
      "particulier": 1703,
      "équipe": 1704,
      "Ces": 1705,
      "Ma": 1706,
      "ppe": 1707,
      "aie": 1708,
      "atis": 1709,
      "vieux": 1710,
      "journée": 1711,
      "entrer": 1712,
      "venue": 1713,
      "jouer": 1714,
      "ancien": 1715,
      "développe": 1716,
      "hy": 1717,
      "pons": 1718,
      "relig": 1719,
      "unique": 1720,
      "auche": 1721,
      "tiers": 1722,
      "selon": 1723,
      "cham": 1724,
      "oie": 1725,
      "ateurs": 1726,
      "troisième": 1727,
      "enfant": 1728,
      "Europe": 1729,
      "janvier": 1730,
      "ak": 1731,
      "tandis": 1732,
      "essenti": 1733,
      "prends": 1734,
      "arriver": 1735,
      "Unis": 1736,
      "livres": 1737,
      "effectivement": 1738,
      "titre": 1739,
      "mas": 1740,
      "avis": 1741,
      "raî": 1742,
      "imm": 1743,
      "prési": 1744,
      "chercher": 1745,
      "voulait": 1746,
      "tifs": 1747,
      "mauvais": 1748,
      "teur": 1749,
      "ref": 1750,
      "jean": 1751,
      "départ": 1752,
      "rées": 1753,
      "maj": 1754,
      "appli": 1755,
      "douze": 1756,
      "domaine": 1757,
      "achet": 1758,
      "cueil": 1759,
      "gno": 1760,
      "hô": 1761,
      "tend": 1762,
      "ît": 1763,
      "aimer": 1764,
      "lequel": 1765,
      "anal": 1766,
      "ange": 1767,
      "partout": 1768,
      "rier": 1769,
      "donn": 1770,
      "fini": 1771,
      "impression": 1772,
      "intérê": 1773,
      "différentes": 1774,
      "succès": 1775,
      "précis": 1776,
      "politique": 1777,
      "Orléans": 1778,
      "Jac": 1779,
      "No": 1780,
      "Son": 1781,
      "ize": 1782,
      "respon": 1783,
      "existe": 1784,
      "moyen": 1785,
      "simplement": 1786,
      "ime": 1787,
      "noir": 1788,
      "vain": 1789,
      "ardin": 1790,
      "Cependant": 1791,
      "essayer": 1792,
      "plaisir": 1793,
      "occasion": 1794,
      "décembre": 1795,
      "Roy": 1796,
      "eût": 1797,
      "land": 1798,
      "lev": 1799,
      "rec": 1800,
      "tiens": 1801,
      "uses": 1802,
      "venant": 1803,
      "voulu": 1804,
      "thè": 1805,
      "sortir": 1806,
      "attention": 1807,
      "Après": 1808,
      "War": 1809,
      "bras": 1810,
      "avril": 1811,
      "exac": 1812,
      "mière": 1813,
      "entreprise": 1814,
      "ards": 1815,
      "mains": 1816,
      "prises": 1817,
      "correspon": 1818,
      "lycée": 1819,
      "pieds": 1820,
      "Li": 1821,
      "fest": 1822,
      "mos": 1823,
      "oit": 1824,
      "sen": 1825,
      "édit": 1826,
      "oires": 1827,
      "proch": 1828,
      "autor": 1829,
      "ablement": 1830,
      "connaît": 1831,
      "diffi": 1832,
      "commencé": 1833,
      "Di": 1834,
      "Man": 1835,
      "bord": 1836,
      "fabri": 1837,
      "pou": 1838,
      "pff": 1839,
      "isse": 1840,
      "partement": 1841,
      "sign": 1842,
      "voyage": 1843,
      "Valjean": 1844,
      "ible": 1845,
      "pain": 1846,
      "vac": 1847,
      "enregis": 1848,
      "agit": 1849,
      "appris": 1850,
      "iller": 1851,
      "mément": 1852,
      "produit": 1853,
      "ho": 1854,
      "sée": 1855,
      "illon": 1856,
      "trê": 1857,
      "lie": 1858,
      "ouvre": 1859,
      "bons": 1860,
      "loy": 1861,
      "direc": 1862,
      "oth": 1863,
      "autrement": 1864,
      "arrivé": 1865,
      "professeur": 1866,
      "éléments": 1867,
      "bâti": 1868,
      "vres": 1869,
      "édu": 1870,
      "tière": 1871,
      "tran": 1872,
      "passion": 1873,
      "accep": 1874,
      "quels": 1875,
      "march": 1876,
      "connaître": 1877,
      "malheure": 1878,
      "importe": 1879,
      "souvenir": 1880,
      "mul": 1881,
      "ouvert": 1882,
      "juillet": 1883,
      "dor": 1884,
      "laient": 1885,
      "mage": 1886,
      "xe": 1887,
      "dehors": 1888,
      "remar": 1889,
      "dée": 1890,
      "lire": 1891,
      "bibli": 1892,
      "pol": 1893,
      "III": 1894,
      "impos": 1895,
      "publique": 1896,
      "texte": 1897,
      "Vers": 1898,
      "ajou": 1899,
      "lor": 1900,
      "lois": 1901,
      "spect": 1902,
      "villa": 1903,
      "âme": 1904,
      "rement": 1905,
      "cel": 1906,
      "lir": 1907,
      "sui": 1908,
      "nove": 1909,
      "octo": 1910,
      "ign": 1911,
      "doute": 1912,
      "femmes": 1913,
      "absolument": 1914,
      "Car": 1915,
      "cles": 1916,
      "honn": 1917,
      "invent": 1918,
      "rép": 1919,
      "sub": 1920,
      "instru": 1921,
      "ock": 1922,
      "rester": 1923,
      "ologie": 1924,
      "Londres": 1925,
      "drait": 1926,
      "len": 1927,
      "aim": 1928,
      "parmi": 1929,
      "prépar": 1930,
      "courant": 1931,
      "trucs": 1932,
      "tradu": 1933,
      "capit": 1934,
      "octobre": 1935,
      "Pa": 1936,
      "gon": 1937,
      "gauche": 1938,
      "mou": 1939,
      "priv": 1940,
      "seau": 1941,
      "combien": 1942,
      "mesure": 1943,
      "mode": 1944,
      "contact": 1945,
      "philos": 1946,
      "adap": 1947,
      "joue": 1948,
      "magas": 1949,
      "bert": 1950,
      "national": 1951,
      "Newton": 1952,
      "énormément": 1953,
      "Mont": 1954,
      "afin": 1955,
      "ieux": 1956,
      "ède": 1957,
      "ément": 1958,
      "aug": 1959,
      "chap": 1960,
      "agré": 1961,
      "respons": 1962,
      "merci": 1963,
      "pouvez": 1964,
      "Mari": 1965,
      "construction": 1966,
      "regarde": 1967,
      "technique": 1968,
      "président": 1969,
      "novembre": 1970,
      "Sa": 1971,
      "sac": 1972,
      "aul": 1973,
      "tien": 1974,
      "département": 1975,
      "ordre": 1976,
      "juin": 1977,
      "classe": 1978,
      "université": 1979,
      "complètement": 1980,
      "exactement": 1981,
      "Es": 1982,
      "tation": 1983,
      "envoy": 1984,
      "eut": 1985,
      "ome": 1986,
      "mie": 1987,
      "cule": 1988,
      "droite": 1989,
      "sortie": 1990,
      "moyens": 1991,
      "sympa": 1992,
      "Gr": 1993,
      "Rob": 1994,
      "Tu": 1995,
      "aurais": 1996,
      "sib": 1997,
      "poser": 1998,
      "produits": 1999,
      "oblig": 2000,
      "Pierre": 2001,
      "endroit": 2002,
      "ane": 2003,
      "tré": 2004,
      "train": 2005,
      "choix": 2006,
      "program": 2007,
      "expéri": 2008,
      "chemin": 2009,
      "puisqu": 2010,
      "vement": 2011,
      "théâtre": 2012,
      "voix": 2013,
      "aucun": 2014,
      "générale": 2015,
      "second": 2016,
      "facile": 2017,
      "destin": 2018,
      "Eg": 2019,
      "kil": 2020,
      "iner": 2021,
      "issent": 2022,
      "chau": 2023,
      "agne": 2024,
      "exp": 2025,
      "cru": 2026,
      "marché": 2027,
      "devait": 2028,
      "épis": 2029,
      "scienti": 2030,
      "type": 2031,
      "intérêt": 2032,
      "dos": 2033,
      "fré": 2034,
      "gest": 2035,
      "tte": 2036,
      "quis": 2037,
      "pay": 2038,
      "dipe": 2039,
      "ciens": 2040,
      "rable": 2041,
      "vidé": 2042,
      "loc": 2043,
      "rencontre": 2044,
      "création": 2045,
      "roues": 2046,
      "frère": 2047,
      "communi": 2048,
      "mouvement": 2049,
      "ao": 2050,
      "dû": 2051,
      "ha": 2052,
      "tor": 2053,
      "vend": 2054,
      "èces": 2055,
      "itaire": 2056,
      "chance": 2057,
      "allu": 2058,
      "diale": 2059,
      "pourrait": 2060,
      "chef": 2061,
      "instant": 2062,
      "tenu": 2063,
      "intéri": 2064,
      "nouvelles": 2065,
      "créer": 2066,
      "demander": 2067,
      "Quand": 2068,
      "clients": 2069,
      "voie": 2070,
      "origin": 2071,
      "personnage": 2072,
      "dam": 2073,
      "fav": 2074,
      "mbres": 2075,
      "nat": 2076,
      "quet": 2077,
      "reux": 2078,
      "uns": 2079,
      "orter": 2080,
      "sec": 2081,
      "chré": 2082,
      "parlé": 2083,
      "paraît": 2084,
      "oiseau": 2085,
      "perdu": 2086,
      "autom": 2087,
      "préci": 2088,
      "empê": 2089,
      "pièce": 2090,
      "compét": 2091,
      "quelquefois": 2092,
      "constitu": 2093,
      "population": 2094,
      "Vous": 2095,
      "pen": 2096,
      "qualité": 2097,
      "papier": 2098,
      "plupart": 2099,
      "madame": 2100,
      "mets": 2101,
      "premières": 2102,
      "écrire": 2103,
      "cause": 2104,
      "Ro": 2105,
      "bot": 2106,
      "gi": 2107,
      "gy": 2108,
      "mam": 2109,
      "etc": 2110,
      "lumière": 2111,
      "régu": 2112,
      "confi": 2113,
      "faite": 2114,
      "propri": 2115,
      "sole": 2116,
      "venus": 2117,
      "joueur": 2118,
      "cteurs": 2119,
      "route": 2120,
      "voiture": 2121,
      "expliquer": 2122,
      "personnages": 2123,
      "écoute": 2124,
      "ordinaire": 2125,
      "terrain": 2126,
      "The": 2127,
      "Tout": 2128,
      "hor": 2129,
      "olo": 2130,
      "vins": 2131,
      "reine": 2132,
      "tie": 2133,
      "jec": 2134,
      "cident": 2135,
      "héros": 2136,
      "fédé": 2137,
      "étude": 2138,
      "bande": 2139,
      "chambre": 2140,
      "vacances": 2141,
      "gage": 2142,
      "nais": 2143,
      "sing": 2144,
      "xim": 2145,
      "page": 2146,
      "indus": 2147,
      "tirer": 2148,
      "révolu": 2149,
      "sons": 2150,
      "apprendre": 2151,
      "extéri": 2152,
      "midi": 2153,
      "posé": 2154,
      "prison": 2155,
      "laisse": 2156,
      "malgré": 2157,
      "allemand": 2158,
      "collè": 2159,
      "clair": 2160,
      "aucune": 2161,
      "difficul": 2162,
      "nage": 2163,
      "ouse": 2164,
      "lec": 2165,
      "indre": 2166,
      "chans": 2167,
      "comman": 2168,
      "sud": 2169,
      "auteur": 2170,
      "Wars": 2171,
      "correspond": 2172,
      "spectacle": 2173,
      "Thé": 2174,
      "iens": 2175,
      "jardin": 2176,
      "mment": 2177,
      "sang": 2178,
      "éner": 2179,
      "esse": 2180,
      "diri": 2181,
      "décla": 2182,
      "données": 2183,
      "racont": 2184,
      "sup": 2185,
      "extra": 2186,
      "idées": 2187,
      "simple": 2188,
      "blanc": 2189,
      "obligé": 2190,
      "othè": 2191,
      "Eglise": 2192,
      "Ré": 2193,
      "gal": 2194,
      "mètres": 2195,
      "nés": 2196,
      "rendre": 2197,
      "the": 2198,
      "écr": 2199,
      "dessous": 2200,
      "membres": 2201,
      "tér": 2202,
      "affaire": 2203,
      "connaissance": 2204,
      "machine": 2205,
      "Stark": 2206,
      "Lupin": 2207,
      "Phili": 2208,
      "activité": 2209,
      "ouvrir": 2210,
      "Versailles": 2211,
      "Marius": 2212,
      "az": 2213,
      "cra": 2214,
      "gam": 2215,
      "mur": 2216,
      "cependant": 2217,
      "cien": 2218,
      "rap": 2219,
      "faits": 2220,
      "usée": 2221,
      "compli": 2222,
      "docu": 2223,
      "influ": 2224,
      "réussi": 2225,
      "munici": 2226,
      "Av": 2227,
      "Ge": 2228,
      "bran": 2229,
      "fleurs": 2230,
      "froi": 2231,
      "har": 2232,
      "jon": 2233,
      "nie": 2234,
      "quée": 2235,
      "retrouve": 2236,
      "die": 2237,
      "pourtant": 2238,
      "ligne": 2239,
      "amé": 2240,
      "cheval": 2241,
      "preu": 2242,
      "ciné": 2243,
      "ival": 2244,
      "avantage": 2245,
      "française": 2246,
      "quartier": 2247,
      "espèce": 2248,
      "Bour": 2249,
      "cations": 2250,
      "çons": 2251,
      "infor": 2252,
      "cevoir": 2253,
      "cole": 2254,
      "chement": 2255,
      "grav": 2256,
      "termin": 2257,
      "discu": 2258,
      "quelles": 2259,
      "carte": 2260,
      "travaillé": 2261,
      "restau": 2262,
      "commerce": 2263,
      "article": 2264,
      "aperç": 2265,
      "explo": 2266,
      "ke": 2267,
      "we": 2268,
      "celles": 2269,
      "géni": 2270,
      "séri": 2271,
      "adminis": 2272,
      "berté": 2273,
      "charge": 2274,
      "nationale": 2275,
      "allée": 2276,
      "descend": 2277,
      "gouvernement": 2278,
      "Dieu": 2279,
      "amp": 2280,
      "cence": 2281,
      "dité": 2282,
      "jam": 2283,
      "salle": 2284,
      "entraî": 2285,
      "pati": 2286,
      "artis": 2287,
      "sie": 2288,
      "passait": 2289,
      "compris": 2290,
      "ciel": 2291,
      "appr": 2292,
      "appe": 2293,
      "cheveux": 2294,
      "puisse": 2295,
      "manger": 2296,
      "rencontr": 2297,
      "Quel": 2298,
      "suffis": 2299,
      "Bas": 2300,
      "ame": 2301,
      "bri": 2302,
      "jeux": 2303,
      "naire": 2304,
      "oles": 2305,
      "pâ": 2306,
      "pent": 2307,
      "tal": 2308,
      "nements": 2309,
      "préfé": 2310,
      "cadre": 2311,
      "garde": 2312,
      "monter": 2313,
      "soient": 2314,
      "principe": 2315,
      "espagno": 2316,
      "films": 2317,
      "capable": 2318,
      "développement": 2319,
      "Du": 2320,
      "Is": 2321,
      "Ni": 2322,
      "Que": 2323,
      "bel": 2324,
      "dol": 2325,
      "hait": 2326,
      "ienne": 2327,
      "vendre": 2328,
      "deur": 2329,
      "dedans": 2330,
      "auprès": 2331,
      "iter": 2332,
      "avan": 2333,
      "conom": 2334,
      "viens": 2335,
      "coin": 2336,
      "chev": 2337,
      "sert": 2338,
      "disent": 2339,
      "parties": 2340,
      "fication": 2341,
      "adres": 2342,
      "intéresse": 2343,
      "appelait": 2344,
      "questions": 2345,
      "tomb": 2346,
      "Ars": 2347,
      "suivre": 2348,
      "commerci": 2349,
      "rapidement": 2350,
      "minutes": 2351,
      "numéro": 2352,
      "analy": 2353,
      "bibliothè": 2354,
      "cos": 2355,
      "ront": 2356,
      "site": 2357,
      "cept": 2358,
      "sein": 2359,
      "divers": 2360,
      "accueil": 2361,
      "permis": 2362,
      "poli": 2363,
      "disant": 2364,
      "laisser": 2365,
      "admi": 2366,
      "vérit": 2367,
      "souhait": 2368,
      "morce": 2369,
      "invest": 2370,
      "thèse": 2371,
      "soleil": 2372,
      "Philippe": 2373,
      "Emp": 2374,
      "cab": 2375,
      "has": 2376,
      "supéri": 2377,
      "llement": 2378,
      "mod": 2379,
      "distin": 2380,
      "roche": 2381,
      "nommé": 2382,
      "nouveaux": 2383,
      "ouverte": 2384,
      "albums": 2385,
      "Charles": 2386,
      "imagin": 2387,
      "furent": 2388,
      "lendemain": 2389,
      "philosoph": 2390,
      "Arsène": 2391,
      "Amé": 2392,
      "bure": 2393,
      "foi": 2394,
      "mour": 2395,
      "scul": 2396,
      "économ": 2397,
      "ano": 2398,
      "rej": 2399,
      "pages": 2400,
      "fier": 2401,
      "employ": 2402,
      "verse": 2403,
      "partis": 2404,
      "points": 2405,
      "montrer": 2406,
      "grosse": 2407,
      "magasin": 2408,
      "kilom": 2409,
      "bag": 2410,
      "ctu": 2411,
      "nar": 2412,
      "pir": 2413,
      "parer": 2414,
      "isation": 2415,
      "issait": 2416,
      "prét": 2417,
      "parais": 2418,
      "alités": 2419,
      "lim": 2420,
      "apprend": 2421,
      "commis": 2422,
      "emploi": 2423,
      "sty": 2424,
      "pierre": 2425,
      "voulais": 2426,
      "montre": 2427,
      "habitude": 2428,
      "Marie": 2429,
      "tels": 2430,
      "écoles": 2431,
      "physi": 2432,
      "bourg": 2433,
      "Formos": 2434,
      "août": 2435,
      "révolution": 2436,
      "Formosante": 2437,
      "Nous": 2438,
      "doc": 2439,
      "pont": 2440,
      "scol": 2441,
      "revenir": 2442,
      "semain": 2443,
      "respec": 2444,
      "exer": 2445,
      "faisant": 2446,
      "voyait": 2447,
      "explique": 2448,
      "électr": 2449,
      "semblait": 2450,
      "volont": 2451,
      "habitants": 2452,
      "nécessaire": 2453,
      "multi": 2454,
      "augment": 2455,
      "semaines": 2456,
      "Bel": 2457,
      "bais": 2458,
      "bac": 2459,
      "stu": 2460,
      "sport": 2461,
      "vait": 2462,
      "vari": 2463,
      "ites": 2464,
      "ainte": 2465,
      "territ": 2466,
      "image": 2467,
      "large": 2468,
      "prennent": 2469,
      "feuille": 2470,
      "club": 2471,
      "fantôme": 2472,
      "existence": 2473,
      "Gav": 2474,
      "Pu": 2475,
      "Tou": 2476,
      "cant": 2477,
      "zaine": 2478,
      "anti": 2479,
      "reur": 2480,
      "erie": 2481,
      "étés": 2482,
      "dési": 2483,
      "concours": 2484,
      "grès": 2485,
      "ditions": 2486,
      "bleu": 2487,
      "poste": 2488,
      "mars": 2489,
      "brou": 2490,
      "habitu": 2491,
      "fév": 2492,
      "groupes": 2493,
      "béné": 2494,
      "roman": 2495,
      "suivant": 2496,
      "rempla": 2497,
      "logement": 2498,
      "annonce": 2499,
      "doig": 2500,
      "phénom": 2501,
      "comprenez": 2502,
      "major": 2503,
      "vidéo": 2504,
      "réguli": 2505,
      "Iron": 2506,
      "Rou": 2507,
      "dat": 2508,
      "ide": 2509,
      "laire": 2510,
      "olé": 2511,
      "dez": 2512,
      "anni": 2513,
      "aume": 2514,
      "secr": 2515,
      "dieux": 2516,
      "conser": 2517,
      "peuple": 2518,
      "cartes": 2519,
      "arrière": 2520,
      "presse": 2521,
      "tradition": 2522,
      "familles": 2523,
      "commencer": 2524,
      "occupe": 2525,
      "enseignement": 2526,
      "situation": 2527,
      "Bab": 2528,
      "Joh": 2529,
      "Sé": 2530,
      "bin": 2531,
      "gres": 2532,
      "gie": 2533,
      "ia": 2534,
      "rois": 2535,
      "çait": 2536,
      "êtres": 2537,
      "île": 2538,
      "ith": 2539,
      "itec": 2540,
      "cement": 2541,
      "tile": 2542,
      "tives": 2543,
      "tration": 2544,
      "paru": 2545,
      "arre": 2546,
      "dien": 2547,
      "dipl": 2548,
      "liberté": 2549,
      "consul": 2550,
      "assu": 2551,
      "accompa": 2552,
      "mécan": 2553,
      "plaît": 2554,
      "lars": 2555,
      "beaux": 2556,
      "Comme": 2557,
      "fantas": 2558,
      "certainement": 2559,
      "meilleur": 2560,
      "intérieur": 2561,
      "Af": 2562,
      "Cant": 2563,
      "nour": 2564,
      "taille": 2565,
      "aign": 2566,
      "inte": 2567,
      "seil": 2568,
      "diman": 2569,
      "extrê": 2570,
      "terme": 2571,
      "pein": 2572,
      "lone": 2573,
      "vécu": 2574,
      "itiques": 2575,
      "liste": 2576,
      "rappelle": 2577,
      "front": 2578,
      "chiff": 2579,
      "promen": 2580,
      "arrivée": 2581,
      "activités": 2582,
      "architec": 2583,
      "maman": 2584,
      "Gavroche": 2585,
      "février": 2586,
      "Br": 2587,
      "Lors": 2588,
      "Min": 2589,
      "dg": 2590,
      "gl": 2591,
      "scou": 2592,
      "combat": 2593,
      "inspi": 2594,
      "dites": 2595,
      "vertu": 2596,
      "magie": 2597,
      "demandé": 2598,
      "date": 2599,
      "science": 2600,
      "évolution": 2601,
      "particulièrement": 2602,
      "extérieur": 2603,
      "gri": 2604,
      "mm": 2605,
      "phe": 2606,
      "sil": 2607,
      "devenir": 2608,
      "initi": 2609,
      "chait": 2610,
      "chaî": 2611,
      "alter": 2612,
      "réseau": 2613,
      "rac": 2614,
      "matière": 2615,
      "guer": 2616,
      "justi": 2617,
      "trième": 2618,
      "musi": 2619,
      "veulent": 2620,
      "nombreuses": 2621,
      "norma": 2622,
      "Angle": 2623,
      "répondit": 2624,
      "animaux": 2625,
      "faudrait": 2626,
      "maître": 2627,
      "espace": 2628,
      "campagne": 2629,
      "établis": 2630,
      "objets": 2631,
      "enregistre": 2632,
      "expérience": 2633,
      "Geor": 2634,
      "kilomètres": 2635,
      "Cur": 2636,
      "oeu": 2637,
      "êt": 2638,
      "retrouver": 2639,
      "uni": 2640,
      "acte": 2641,
      "abilité": 2642,
      "couleur": 2643,
      "entreprises": 2644,
      "sépar": 2645,
      "boulot": 2646,
      "faisaient": 2647,
      "anges": 2648,
      "aliste": 2649,
      "créé": 2650,
      "littér": 2651,
      "utiliser": 2652,
      "lettre": 2653,
      "conseil": 2654,
      "tranqu": 2655,
      "village": 2656,
      "Gre": 2657,
      "gla": 2658,
      "joli": 2659,
      "spec": 2660,
      "tâ": 2661,
      "émon": 2662,
      "euses": 2663,
      "pau": 2664,
      "pauvre": 2665,
      "este": 2666,
      "prouv": 2667,
      "alla": 2668,
      "détru": 2669,
      "ric": 2670,
      "viol": 2671,
      "préf": 2672,
      "double": 2673,
      "traite": 2674,
      "hiver": 2675,
      "quatrième": 2676,
      "matériel": 2677,
      "résultats": 2678,
      "uniquement": 2679,
      "directement": 2680,
      "Cantor": 2681,
      "Angleterre": 2682,
      ",,": 2683,
      "dois": 2684,
      "fen": 2685,
      "fasse": 2686,
      "gnes": 2687,
      "mb": 2688,
      "nord": 2689,
      "savait": 2690,
      "xi": 2691,
      "lever": 2692,
      "ani": 2693,
      "entendre": 2694,
      "payer": 2695,
      "insi": 2696,
      "inqui": 2697,
      "orde": 2698,
      "tire": 2699,
      "ager": 2700,
      "humain": 2701,
      "croire": 2702,
      "disais": 2703,
      "robot": 2704,
      "fiques": 2705,
      "figu": 2706,
      "vieille": 2707,
      "contrô": 2708,
      "contraire": 2709,
      "utilise": 2710,
      "budg": 2711,
      "recherches": 2712,
      "textes": 2713,
      "agréable": 2714,
      "Grand": 2715,
      "favor": 2716,
      "Ju": 2717,
      "Sh": 2718,
      "dy": 2719,
      "gée": 2720,
      "rentrer": 2721,
      "satis": 2722,
      "villes": 2723,
      "anne": 2724,
      "lat": 2725,
      "unes": 2726,
      "avou": 2727,
      "changer": 2728,
      "allais": 2729,
      "étaire": 2730,
      "comprendre": 2731,
      "consé": 2732,
      "imer": 2733,
      "possib": 2734,
      "langues": 2735,
      "noms": 2736,
      "Enfin": 2737,
      "objec": 2738,
      "connaiss": 2739,
      "pensée": 2740,
      "continue": 2741,
      "durant": 2742,
      "maîtres": 2743,
      "atelier": 2744,
      "américain": 2745,
      "malheureusement": 2746,
      "industri": 2747,
      "dollars": 2748,
      "bureau": 2749,
      "extrême": 2750,
      "Alle": 2751,
      "Pok": 2752,
      "Uni": 2753,
      "tée": 2754,
      "lable": 2755,
      "iné": 2756,
      "dio": 2757,
      "démo": 2758,
      "rages": 2759,
      "mique": 2760,
      "monu": 2761,
      "imprim": 2762,
      "fix": 2763,
      "fici": 2764,
      "heureux": 2765,
      "moments": 2766,
      "différence": 2767,
      "formations": 2768,
      "Inter": 2769,
      "évident": 2770,
      "répondre": 2771,
      "assis": 2772,
      "regarder": 2773,
      "passage": 2774,
      "seconde": 2775,
      "décidé": 2776,
      "pratiquement": 2777,
      "Ainsi": 2778,
      "Etat": 2779,
      "fai": 2780,
      "mys": 2781,
      "écla": 2782,
      "ony": 2783,
      "entôt": 2784,
      "parlait": 2785,
      "éton": 2786,
      "démons": 2787,
      "rire": 2788,
      "agé": 2789,
      "exam": 2790,
      "terri": 2791,
      "seront": 2792,
      "manque": 2793,
      "content": 2794,
      "véhi": 2795,
      "consci": 2796,
      "brû": 2797,
      "berg": 2798,
      "lettres": 2799,
      "ancienne": 2800,
      "solution": 2801,
      "sources": 2802,
      "généralement": 2803,
      "évène": 2804,
      "essentiellement": 2805,
      "immeu": 2806,
      "éducation": 2807,
      "honneur": 2808,
      "Mal": 2809,
      "Sk": 2810,
      "atique": 2811,
      "dents": 2812,
      "fût": 2813,
      "holi": 2814,
      "mant": 2815,
      "ow": 2816,
      "pê": 2817,
      "pai": 2818,
      "aimé": 2819,
      "aider": 2820,
      "quo": 2821,
      "relation": 2822,
      "aute": 2823,
      "trom": 2824,
      "dure": 2825,
      "propose": 2826,
      "cop": 2827,
      "moire": 2828,
      "lément": 2829,
      "méde": 2830,
      "nolog": 2831,
      "nombres": 2832,
      "céré": 2833,
      "présence": 2834,
      "magne": 2835,
      "importante": 2836,
      "calcul": 2837,
      "appelé": 2838,
      "tombe": 2839,
      "pied": 2840,
      "Conseil": 2841,
      "Royan": 2842,
      "St": 2843,
      "Ses": 2844,
      "Sur": 2845,
      "gre": 2846,
      "çant": 2847,
      "enri": 2848,
      "devenu": 2849,
      "rev": 2850,
      "auté": 2851,
      "procé": 2852,
      "colon": 2853,
      "terie": 2854,
      "mélan": 2855,
      "caract": 2856,
      "faisais": 2857,
      "merveille": 2858,
      "quator": 2859,
      "gnie": 2860,
      "fruit": 2861,
      "décis": 2862,
      "assist": 2863,
      "effectu": 2864,
      "continuer": 2865,
      "aventure": 2866,
      "photo": 2867,
      "circu": 2868,
      "programme": 2869,
      "hasard": 2870,
      "Pokémon": 2871,
      "nait": 2872,
      "lage": 2873,
      "isé": 2874,
      "iser": 2875,
      "parlent": 2876,
      "riez": 2877,
      "expé": 2878,
      "mir": 2879,
      "poly": 2880,
      "veil": 2881,
      "valeur": 2882,
      "longue": 2883,
      "version": 2884,
      "vieil": 2885,
      "trice": 2886,
      "effort": 2887,
      "rouge": 2888,
      "construire": 2889,
      "détail": 2890,
      "actuellement": 2891,
      "suivi": 2892,
      "scientifique": 2893,
      "Afrique": 2894,
      "Flor": 2895,
      "Groues": 2896,
      "Tous": 2897,
      "are": 2898,
      "din": 2899,
      "fe": 2900,
      "hés": 2901,
      "ident": 2902,
      "test": 2903,
      "tas": 2904,
      "ètre": 2905,
      "éti": 2906,
      "ettes": 2907,
      "ingéni": 2908,
      "sibles": 2909,
      "nels": 2910,
      "éter": 2911,
      "rir": 2912,
      "treize": 2913,
      "conte": 2914,
      "bientôt": 2915,
      "exception": 2916,
      "mondiale": 2917,
      "cuis": 2918,
      "moder": 2919,
      "ppen": 2920,
      "corse": 2921,
      "sociale": 2922,
      "catholi": 2923,
      "moteur": 2924,
      "étudiants": 2925,
      "rayon": 2926,
      "atteint": 2927,
      "Co": 2928,
      "Hil": 2929,
      "ek": 2930,
      "gles": 2931,
      "meur": 2932,
      "mine": 2933,
      "tons": 2934,
      "oul": 2935,
      "quait": 2936,
      "itut": 2937,
      "sez": 2938,
      "chir": 2939,
      "parfait": 2940,
      "ours": 2941,
      "armée": 2942,
      "riches": 2943,
      "récu": 2944,
      "actions": 2945,
      "agri": 2946,
      "geait": 2947,
      "direction": 2948,
      "court": 2949,
      "voud": 2950,
      "alisation": 2951,
      "bruit": 2952,
      "Cela": 2953,
      "lard": 2954,
      "normal": 2955,
      "tomber": 2956,
      "changé": 2957,
      "occup": 2958,
      "organisation": 2959,
      "signi": 2960,
      "association": 2961,
      "Curie": 2962,
      "quoti": 2963,
      "quatorze": 2964,
      "Har": 2965,
      "IV": 2966,
      "Pro": 2967,
      "hu": 2968,
      "pom": 2969,
      "ât": 2970,
      "écl": 2971,
      "libre": 2972,
      "ouvrage": 2973,
      "progres": 2974,
      "vez": 2975,
      "pièces": 2976,
      "bouche": 2977,
      "vention": 2978,
      "raisons": 2979,
      "rendu": 2980,
      "gars": 2981,
      "ferme": 2982,
      "production": 2983,
      "traits": 2984,
      "voient": 2985,
      "moyenne": 2986,
      "curité": 2987,
      "doivent": 2988,
      "essaie": 2989,
      "Espagne": 2990,
      "épisode": 2991,
      "extraordinaire": 2992,
      "informatique": 2993,
      "Empire": 2994,
      "style": 2995,
      "scolaire": 2996,
      "normalement": 2997,
      "Lo": 2998,
      "bra": 2999,
      "laires": 3000,
      "psy": 3001,
      "entrée": 3002,
      "intro": 3003,
      "trag": 3004,
      "cho": 3005,
      "ombre": 3006,
      "réfé": 3007,
      "concert": 3008,
      "suit": 3009,
      "europé": 3010,
      "poss": 3011,
      "laissé": 3012,
      "consac": 3013,
      "alistes": 3014,
      "prince": 3015,
      "voitures": 3016,
      "climat": 3017,
      "critique": 3018,
      "lette": 3019,
      "construit": 3020,
      "manifest": 3021,
      "toile": 3022,
      "réflé": 3023,
      "facilement": 3024,
      "Pays": 3025,
      "Avenant": 3026,
      "Bar": 3027,
      "Ganim": 3028,
      "IC": 3029,
      "bus": 3030,
      "ic": 3031,
      "ige": 3032,
      "joie": 3033,
      "odes": 3034,
      "rons": 3035,
      "tante": 3036,
      "équ": 3037,
      "évé": 3038,
      "onze": 3039,
      "pat": 3040,
      "nez": 3041,
      "diction": 3042,
      "atten": 3043,
      "touche": 3044,
      "civ": 3045,
      "abs": 3046,
      "moitié": 3047,
      "cade": 3048,
      "boulan": 3049,
      "derniers": 3050,
      "prenait": 3051,
      "bandes": 3052,
      "anciens": 3053,
      "somme": 3054,
      "porter": 3055,
      "sciences": 3056,
      "bourge": 3057,
      "étrang": 3058,
      "étranger": 3059,
      "techniques": 3060,
      "relations": 3061,
      "journaux": 3062,
      "champion": 3063,
      "Avec": 3064,
      "bibliothèque": 3065,
      "territoire": 3066,
      "dimanche": 3067,
      "figure": 3068,
      "introdu": 3069,
      "Ganimard": 3070,
      "Aus": 3071,
      "Ben": 3072,
      "Gö": 3073,
      "couv": 3074,
      "dan": 3075,
      "loir": 3076,
      "poi": 3077,
      "pois": 3078,
      "sés": 3079,
      "uel": 3080,
      "intel": 3081,
      "teaux": 3082,
      "sif": 3083,
      "attr": 3084,
      "riche": 3085,
      "dispos": 3086,
      "gueur": 3087,
      "saison": 3088,
      "fati": 3089,
      "visage": 3090,
      "servir": 3091,
      "machin": 3092,
      "Guerre": 3093,
      "reçu": 3094,
      "acheter": 3095,
      "Jacques": 3096,
      "dossi": 3097,
      "gestion": 3098,
      "preuve": 3099,
      "cinéma": 3100,
      "Puis": 3101,
      "Baby": 3102,
      "tranquille": 3103,
      "As": 3104,
      "Oppen": 3105,
      "clo": 3106,
      "clé": 3107,
      "mette": 3108,
      "naires": 3109,
      "scé": 3110,
      "vaut": 3111,
      "èmes": 3112,
      "unité": 3113,
      "paris": 3114,
      "arc": 3115,
      "conç": 3116,
      "contemp": 3117,
      "acquis": 3118,
      "viend": 3119,
      "financi": 3120,
      "user": 3121,
      "heimer": 3122,
      "modi": 3123,
      "couleurs": 3124,
      "directeur": 3125,
      "mémoire": 3126,
      "marcher": 3127,
      "précé": 3128,
      "cad": 3129,
      "connue": 3130,
      "obtient": 3131,
      "publié": 3132,
      "graph": 3133,
      "affir": 3134,
      "contrôle": 3135,
      "prenant": 3136,
      "services": 3137,
      "transport": 3138,
      "mathémati": 3139,
      "gagner": 3140,
      "aventures": 3141,
      "actuelle": 3142,
      "journal": 3143,
      "document": 3144,
      "froid": 3145,
      "philosophie": 3146,
      "Oppenheimer": 3147,
      "Bu": 3148,
      "Mad": 3149,
      "fo": 3150,
      "oint": 3151,
      "sage": 3152,
      "savent": 3153,
      "Égy": 3154,
      "ènes": 3155,
      "issant": 3156,
      "itaires": 3157,
      "orique": 3158,
      "chée": 3159,
      "ara": 3160,
      "arra": 3161,
      "allo": 3162,
      "atures": 3163,
      "rédu": 3164,
      "rale": 3165,
      "aban": 3166,
      "ambi": 3167,
      "appu": 3168,
      "puissance": 3169,
      "nig": 3170,
      "soli": 3171,
      "noeu": 3172,
      "contrer": 3173,
      "cherche": 3174,
      "stat": 3175,
      "carré": 3176,
      "resté": 3177,
      "fera": 3178,
      "collabor": 3179,
      "droits": 3180,
      "importance": 3181,
      "technolog": 3182,
      "déter": 3183,
      "électri": 3184,
      "clientèle": 3185,
      "politiques": 3186,
      "chanson": 3187,
      "régulièrement": 3188,
      "John": 3189,
      "Hilbert": 3190,
      "Babylone": 3191,
      "Ou": 3192,
      "Tur": 3193,
      "Vo": 3194,
      "davantage": 3195,
      "haute": 3196,
      "maire": 3197,
      "rist": 3198,
      "zon": 3199,
      "évent": 3200,
      "évit": 3201,
      "ël": 3202,
      "aviez": 3203,
      "uré": 3204,
      "récit": 3205,
      "aste": 3206,
      "aspect": 3207,
      "vigne": 3208,
      "endant": 3209,
      "monte": 3210,
      "rance": 3211,
      "obs": 3212,
      "militaire": 3213,
      "pronon": 3214,
      "affaires": 3215,
      "larité": 3216,
      "ensembles": 3217,
      "décide": 3218,
      "royaume": 3219,
      "radio": 3220,
      "Bern": 3221,
      "single": 3222,
      "analyse": 3223,
      "modèle": 3224,
      "électrique": 3225,
      "Ra": 3226,
      "Ri": 3227,
      "XV": 3228,
      "fête": 3229,
      "gou": 3230,
      "gner": 3231,
      "hou": 3232,
      "iers": 3233,
      "km": 3234,
      "pel": 3235,
      "saint": 3236,
      "utile": 3237,
      "ètes": 3238,
      "retrouv": 3239,
      "issement": 3240,
      "seize": 3241,
      "allè": 3242,
      "propres": 3243,
      "maxim": 3244,
      "lées": 3245,
      "formes": 3246,
      "tenait": 3247,
      "péd": 3248,
      "intitu": 3249,
      "lève": 3250,
      "tements": 3251,
      "mater": 3252,
      "garçon": 3253,
      "itif": 3254,
      "oyen": 3255,
      "fermé": 3256,
      "juge": 3257,
      "penser": 3258,
      "jeunesse": 3259,
      "boî": 3260,
      "réflex": 3261,
      "demie": 3262,
      "choisi": 3263,
      "aimerais": 3264,
      "communication": 3265,
      "véritable": 3266,
      "mourir": 3267,
      "justice": 3268,
      "mystéri": 3269,
      "boulanger": 3270,
      "AP": 3271,
      "Alors": 3272,
      "Gar": 3273,
      "Pas": 3274,
      "So": 3275,
      "by": 3276,
      "hon": 3277,
      "nis": 3278,
      "neur": 3279,
      "ples": 3280,
      "espère": 3281,
      "engag": 3282,
      "aiment": 3283,
      "qués": 3284,
      "itation": 3285,
      "déli": 3286,
      "dépla": 3287,
      "rési": 3288,
      "assi": 3289,
      "respect": 3290,
      "bonheur": 3291,
      "nier": 3292,
      "marque": 3293,
      "conten": 3294,
      "célè": 3295,
      "vente": 3296,
      "attendre": 3297,
      "histori": 3298,
      "pleine": 3299,
      "from": 3300,
      "huile": 3301,
      "classes": 3302,
      "mariage": 3303,
      "arrêter": 3304,
      "laboratoire": 3305,
      "totalement": 3306,
      "Florine": 3307,
      "bourgeois": 3308,
      "bol": 3309,
      "cous": 3310,
      "fu": 3311,
      "gos": 3312,
      "ker": 3313,
      "pti": 3314,
      "pture": 3315,
      "rus": 3316,
      "rentre": 3317,
      "lations": 3318,
      "tein": 3319,
      "avenir": 3320,
      "alli": 3321,
      "rive": 3322,
      "réalité": 3323,
      "acté": 3324,
      "bie": 3325,
      "cules": 3326,
      "serais": 3327,
      "sala": 3328,
      "mann": 3329,
      "command": 3330,
      "autrefois": 3331,
      "fonds": 3332,
      "devrait": 3333,
      "pensez": 3334,
      "logici": 3335,
      "répond": 3336,
      "machines": 3337,
      "principal": 3338,
      "principalement": 3339,
      "opération": 3340,
      "relativement": 3341,
      "imagine": 3342,
      "photos": 3343,
      "concerne": 3344,
      "religion": 3345,
      "tendance": 3346,
      "igneur": 3347,
      "naissance": 3348,
      "municipal": 3349,
      "apprent": 3350,
      "limite": 3351,
      "commission": 3352,
      "intellig": 3353,
      "maximum": 3354,
      "Dé": 3355,
      "ET": 3356,
      "Mo": 3357,
      "Nap": 3358,
      "ON": 3359,
      "batt": 3360,
      "lun": 3361,
      "lés": 3362,
      "nav": 3363,
      "rité": 3364,
      "tt": 3365,
      "tap": 3366,
      "écu": 3367,
      "ûte": 3368,
      "oux": 3369,
      "eus": 3370,
      "erse": 3371,
      "erran": 3372,
      "palais": 3373,
      "informations": 3374,
      "issu": 3375,
      "ceci": 3376,
      "chu": 3377,
      "chés": 3378,
      "omie": 3379,
      "arm": 3380,
      "conserv": 3381,
      "ram": 3382,
      "rare": 3383,
      "appare": 3384,
      "bonjour": 3385,
      "prévu": 3386,
      "accès": 3387,
      "Jedi": 3388,
      "Chine": 3389,
      "monté": 3390,
      "magni": 3391,
      "logique": 3392,
      "santé": 3393,
      "utilisé": 3394,
      "goût": 3395,
      "élément": 3396,
      "maîtr": 3397,
      "accepter": 3398,
      "morceaux": 3399,
      "Amérique": 3400,
      "majorité": 3401,
      "caractère": 3402,
      "Égypte": 3403,
      "Qui": 3404,
      "côt": 3405,
      "cave": 3406,
      "fra": 3407,
      "fie": 3408,
      "uph": 3409,
      "évo": 3410,
      "aigu": 3411,
      "devoir": 3412,
      "lesquels": 3413,
      "pardon": 3414,
      "ousse": 3415,
      "due": 3416,
      "riv": 3417,
      "aco": 3418,
      "pul": 3419,
      "humaine": 3420,
      "former": 3421,
      "gées": 3422,
      "ots": 3423,
      "adop": 3424,
      "rencontrer": 3425,
      "régions": 3426,
      "syn": 3427,
      "siège": 3428,
      "réponse": 3429,
      "institu": 3430,
      "mener": 3431,
      "Sud": 3432,
      "suffit": 3433,
      "énorme": 3434,
      "environnement": 3435,
      "profonde": 3436,
      "hodes": 3437,
      "énergie": 3438,
      "influence": 3439,
      "alterna": 3440,
      "voudrais": 3441,
      "détermin": 3442,
      "pédag": 3443,
      "Dès": 3444,
      "Deux": 3445,
      "Rival": 3446,
      "Tour": 3447,
      "West": 3448,
      "aé": 3449,
      "aï": 3450,
      "cités": 3451,
      "gâ": 3452,
      "gus": 3453,
      "ham": 3454,
      "lâ": 3455,
      "mation": 3456,
      "oo": 3457,
      "pis": 3458,
      "ennes": 3459,
      "quête": 3460,
      "annu": 3461,
      "recevoir": 3462,
      "lac": 3463,
      "latin": 3464,
      "parole": 3465,
      "dier": 3466,
      "pourrais": 3467,
      "révé": 3468,
      "conditions": 3469,
      "ague": 3470,
      "put": 3471,
      "tus": 3472,
      "grave": 3473,
      "mettait": 3474,
      "stock": 3475,
      "cées": 3476,
      "sentir": 3477,
      "rences": 3478,
      "Christ": 3479,
      "famili": 3480,
      "crire": 3481,
      "historique": 3482,
      "élevé": 3483,
      "quart": 3484,
      "mathématique": 3485,
      "théorème": 3486,
      "indivi": 3487,
      "Suisse": 3488,
      "quitter": 3489,
      "support": 3490,
      "volonté": 3491,
      "scouts": 3492,
      "tragédi": 3493,
      "At": 3494,
      "Jo": 3495,
      "OK": 3496,
      "Oliv": 3497,
      "Pe": 3498,
      "bom": 3499,
      "bos": 3500,
      "dence": 3501,
      "ka": 3502,
      "ki": 3503,
      "ption": 3504,
      "savais": 3505,
      "del": 3506,
      "reprendre": 3507,
      "ilités": 3508,
      "illus": 3509,
      "indépend": 3510,
      "trent": 3511,
      "trie": 3512,
      "chent": 3513,
      "signe": 3514,
      "dul": 3515,
      "défaut": 3516,
      "dérou": 3517,
      "lieux": 3518,
      "ouvrages": 3519,
      "accident": 3520,
      "ection": 3521,
      "surface": 3522,
      "cool": 3523,
      "fié": 3524,
      "coups": 3525,
      "venaient": 3526,
      "trouvait": 3527,
      "céan": 3528,
      "apporter": 3529,
      "observ": 3530,
      "pouvaient": 3531,
      "souver": 3532,
      "montagne": 3533,
      "thème": 3534,
      "orient": 3535,
      "apparition": 3536,
      "baron": 3537,
      "lignes": 3538,
      "téléph": 3539,
      "télévision": 3540,
      "titres": 3541,
      "maladie": 3542,
      "impossible": 3543,
      "lecture": 3544,
      "République": 3545,
      "oléon": 3546,
      "peinture": 3547,
      "paix": 3548,
      "Lin": 3549,
      "fallu": 3550,
      "gés": 3551,
      "morte": 3552,
      "seurs": 3553,
      "ège": 3554,
      "édition": 3555,
      "ouest": 3556,
      "revoir": 3557,
      "revient": 3558,
      "entier": 3559,
      "orté": 3560,
      "omé": 3561,
      "ath": 3562,
      "réel": 3563,
      "conception": 3564,
      "rations": 3565,
      "airement": 3566,
      "puiss": 3567,
      "perman": 3568,
      "immédi": 3569,
      "note": 3570,
      "mettent": 3571,
      "jusque": 3572,
      "partage": 3573,
      "visible": 3574,
      "garçons": 3575,
      "ctures": 3576,
      "Français": 3577,
      "consom": 3578,
      "nouvel": 3579,
      "publie": 3580,
      "profit": 3581,
      "soirée": 3582,
      "personnel": 3583,
      "produire": 3584,
      "telles": 3585,
      "Depuis": 3586,
      "risque": 3587,
      "tivité": 3588,
      "tissu": 3589,
      "blancs": 3590,
      "prati": 3591,
      "ologique": 3592,
      "Lucas": 3593,
      "issage": 3594,
      "considéré": 3595,
      "essaye": 3596,
      "mauvaise": 3597,
      "souvenirs": 3598,
      "secret": 3599,
      "écoutez": 3600,
      "difficulté": 3601,
      "améli": 3602,
      "Basque": 3603,
      "espagnol": 3604,
      "police": 3605,
      "supérieur": 3606,
      "budget": 3607,
      "dyn": 3608,
      "Allemagne": 3609,
      "éclai": 3610,
      "Olivet": 3611,
      "Bien": 3612,
      "Paul": 3613,
      "Xe": 3614,
      "aque": 3615,
      "belles": 3616,
      "cen": 3617,
      "masse": 3618,
      "pan": 3619,
      "rin": 3620,
      "éloi": 3621,
      "ômes": 3622,
      "repris": 3623,
      "istique": 3624,
      "trot": 3625,
      "secteur": 3626,
      "ares": 3627,
      "armes": 3628,
      "dial": 3629,
      "atti": 3630,
      "ries": 3631,
      "conclu": 3632,
      "vivent": 3633,
      "distribu": 3634,
      "gérer": 3635,
      "tempér": 3636,
      "préparer": 3637,
      "connus": 3638,
      "carrière": 3639,
      "caracté": 3640,
      "arrivent": 3641,
      "obtenir": 3642,
      "interdit": 3643,
      "interro": 3644,
      "seuls": 3645,
      "fameux": 3646,
      "élev": 3647,
      "outil": 3648,
      "occuper": 3649,
      "citer": 3650,
      "Monsieur": 3651,
      "faute": 3652,
      "sauf": 3653,
      "arrêté": 3654,
      "sitôt": 3655,
      "ographie": 3656,
      "collec": 3657,
      "bâtiment": 3658,
      "bâtiments": 3659,
      "collège": 3660,
      "difficultés": 3661,
      "appeler": 3662,
      "fenêtre": 3663,
      "récupé": 3664,
      "caractéris": 3665,
      "Jose": 3666,
      "Mi": 3667,
      "Mag": 3668,
      "Opé": 3669,
      "RE": 3670,
      "Soph": 3671,
      "bis": 3672,
      "cale": 3673,
      "den": 3674,
      "ements": 3675,
      "far": 3676,
      "obi": 3677,
      "taient": 3678,
      "vê": 3679,
      "zone": 3680,
      "élus": 3681,
      "auraient": 3682,
      "ora": 3683,
      "aver": 3684,
      "avance": 3685,
      "parc": 3686,
      "passent": 3687,
      "comte": 3688,
      "dément": 3689,
      "démie": 3690,
      "convain": 3691,
      "maisons": 3692,
      "vide": 3693,
      "ressources": 3694,
      "bière": 3695,
      "expos": 3696,
      "miques": 3697,
      "auteurs": 3698,
      "opin": 3699,
      "marqué": 3700,
      "otte": 3701,
      "boulev": 3702,
      "imper": 3703,
      "cult": 3704,
      "oyer": 3705,
      "côte": 3706,
      "Inst": 3707,
      "communauté": 3708,
      "suivante": 3709,
      "milliards": 3710,
      "Monaco": 3711,
      "ordinateur": 3712,
      "facul": 3713,
      "fourn": 3714,
      "prochaine": 3715,
      "raconter": 3716,
      "Bourgo": 3717,
      "adresse": 3718,
      "préfère": 3719,
      "possibilité": 3720,
      "extrêmement": 3721,
      "terrible": 3722,
      "conscience": 3723,
      "éventu": 3724,
      "pédagog": 3725,
      "Joseph": 3726,
      "Opéra": 3727,
      "Can": 3728,
      "Est": 3729,
      "Henri": 3730,
      "Pet": 3731,
      "fus": 3732,
      "fêtes": 3733,
      "gê": 3734,
      "gend": 3735,
      "gique": 3736,
      "hode": 3737,
      "més": 3738,
      "pil": 3739,
      "pét": 3740,
      "rite": 3741,
      "rête": 3742,
      "çois": 3743,
      "espé": 3744,
      "ond": 3745,
      "quence": 3746,
      "reprit": 3747,
      "eté": 3748,
      "information": 3749,
      "tienne": 3750,
      "elon": 3751,
      "rivi": 3752,
      "rius": 3753,
      "raconte": 3754,
      "vian": 3755,
      "excu": 3756,
      "perd": 3757,
      "guère": 3758,
      "fice": 3759,
      "sentait": 3760,
      "pouvant": 3761,
      "uitonne": 3762,
      "enfer": 3763,
      "souviens": 3764,
      "Martin": 3765,
      "canal": 3766,
      "ories": 3767,
      "installer": 3768,
      "classique": 3769,
      "gare": 3770,
      "ographe": 3771,
      "cycle": 3772,
      "sujets": 3773,
      "méthode": 3774,
      "rapide": 3775,
      "Truitonne": 3776,
      "règles": 3777,
      "chevaux": 3778,
      "mécanique": 3779,
      "étiez": 3780,
      "possède": 3781,
      "civilis": 3782,
      "éviter": 3783,
      "apprentissage": 3784,
      "Be": 3785,
      "Cet": 3786,
      "Cert": 3787,
      "Ho": 3788,
      "Ital": 3789,
      "Pendant": 3790,
      "Ren": 3791,
      "We": 3792,
      "cis": 3793,
      "ft": 3794,
      "meu": 3795,
      "noire": 3796,
      "sins": 3797,
      "tur": 3798,
      "antique": 3799,
      "eusement": 3800,
      "lau": 3801,
      "inno": 3802,
      "trac": 3803,
      "chin": 3804,
      "sivement": 3805,
      "duc": 3806,
      "diam": 3807,
      "limit": 3808,
      "réser": 3809,
      "contribu": 3810,
      "exprim": 3811,
      "usé": 3812,
      "mob": 3813,
      "niers": 3814,
      "rang": 3815,
      "contac": 3816,
      "église": 3817,
      "François": 3818,
      "regret": 3819,
      "traité": 3820,
      "Onuph": 3821,
      "offre": 3822,
      "découverte": 3823,
      "planète": 3824,
      "électron": 3825,
      "demanda": 3826,
      "ryth": 3827,
      "Corse": 3828,
      "chauff": 3829,
      "confiance": 3830,
      "rencontré": 3831,
      "doigt": 3832,
      "chaîne": 3833,
      "Green": 3834,
      "célèbre": 3835,
      "Napoléon": 3836,
      "Bourgogne": 3837,
      "Onuphrius": 3838,
      "1er": 3839,
      "Bi": 3840,
      "Ban": 3841,
      "Day": 3842,
      "Gran": 3843,
      "Po": 3844,
      "Pau": 3845,
      "Plu": 3846,
      "XI": 3847,
      "ative": 3848,
      "bête": 3849,
      "cés": 3850,
      "ereur": 3851,
      "fum": 3852,
      "haus": 3853,
      "lons": 3854,
      "odi": 3855,
      "struc": 3856,
      "vint": 3857,
      "éval": 3858,
      "pation": 3859,
      "lay": 3860,
      "inconnu": 3861,
      "quement": 3862,
      "avions": 3863,
      "nelles": 3864,
      "répu": 3865,
      "vienne": 3866,
      "apt": 3867,
      "expression": 3868,
      "pers": 3869,
      "moindre": 3870,
      "dist": 3871,
      "forte": 3872,
      "formé": 3873,
      "formu": 3874,
      "forêt": 3875,
      "fia": 3876,
      "phra": 3877,
      "statis": 3878,
      "boute": 3879,
      "impli": 3880,
      "plat": 3881,
      "joué": 3882,
      "tournée": 3883,
      "jeter": 3884,
      "devint": 3885,
      "gny": 3886,
      "cass": 3887,
      "Quant": 3888,
      "outils": 3889,
      "développer": 3890,
      "feuilles": 3891,
      "écria": 3892,
      "étudie": 3893,
      "attends": 3894,
      "réunion": 3895,
      "autorité": 3896,
      "préparation": 3897,
      "responsable": 3898,
      "Robert": 3899,
      "week": 3900,
      "multipli": 3901,
      "phénomène": 3902,
      "spectat": 3903,
      "objectif": 3904,
      "Non": 3905,
      "Per": 3906,
      "Ram": 3907,
      "Wil": 3908,
      "cus": 3909,
      "dange": 3910,
      "fla": 3911,
      "hard": 3912,
      "ière": 3913,
      "musée": 3914,
      "stru": 3915,
      "émo": 3916,
      "épi": 3917,
      "échange": 3918,
      "lecteur": 3919,
      "représente": 3920,
      "patron": 3921,
      "isent": 3922,
      "paroles": 3923,
      "passant": 3924,
      "contient": 3925,
      "assur": 3926,
      "vict": 3927,
      "proches": 3928,
      "progrès": 3929,
      "appareil": 3930,
      "monie": 3931,
      "orth": 3932,
      "négo": 3933,
      "local": 3934,
      "peau": 3935,
      "dispon": 3936,
      "direct": 3937,
      "vendu": 3938,
      "sécurité": 3939,
      "lance": 3940,
      "obser": 3941,
      "trib": 3942,
      "vouloir": 3943,
      "garder": 3944,
      "franco": 3945,
      "exemplaires": 3946,
      "social": 3947,
      "probablement": 3948,
      "quartiers": 3949,
      "domin": 3950,
      "découvrir": 3951,
      "apparais": 3952,
      "vaste": 3953,
      "types": 3954,
      "professionnelle": 3955,
      "conseiller": 3956,
      "hôtel": 3957,
      "sympath": 3958,
      "médec": 3959,
      "Turing": 3960,
      "Italie": 3961,
      "Cô": 3962,
      "Cas": 3963,
      "El": 3964,
      "Me": 3965,
      "Né": 3966,
      "Thom": 3967,
      "Terre": 3968,
      "dite": 3969,
      "gné": 3970,
      "glo": 3971,
      "gale": 3972,
      "lour": 3973,
      "pun": 3974,
      "rain": 3975,
      "uté": 3976,
      "leva": 3977,
      "levé": 3978,
      "patri": 3979,
      "ina": 3980,
      "estime": 3981,
      "prêtre": 3982,
      "chets": 3983,
      "arrête": 3984,
      "comprend": 3985,
      "comprends": 3986,
      "divis": 3987,
      "décor": 3988,
      "désor": 3989,
      "rigo": 3990,
      "lien": 3991,
      "ouve": 3992,
      "accept": 3993,
      "apon": 3994,
      "biz": 3995,
      "grille": 3996,
      "sachant": 3997,
      "loyer": 3998,
      "cry": 3999,
      "discours": 4000,
      "possé": 4001,
      "tenue": 4002,
      "camp": 4003,
      "ocle": 4004,
      "complex": 4005,
      "ignor": 4006,
      "cinqui": 4007,
      "olk": 4008,
      "présents": 4009,
      "génération": 4010,
      "mages": 4011,
      "magaz": 4012,
      "traitement": 4013,
      "quasi": 4014,
      "écriture": 4015,
      "logements": 4016,
      "foule": 4017,
      "supplément": 4018,
      "conflit": 4019,
      "Force": 4020,
      "demandent": 4021,
      "attaque": 4022,
      "règle": 4023,
      "Island": 4024,
      "évènements": 4025,
      "richesse": 4026,
      "danse": 4027,
      "salari": 4028,
      "boulevard": 4029,
      "Ca": 4030,
      "Ex": 4031,
      "Nouv": 4032,
      "Selon": 4033,
      "coi": 4034,
      "cite": 4035,
      "fun": 4036,
      "fas": 4037,
      "gh": 4038,
      "gers": 4039,
      "hier": 4040,
      "lli": 4041,
      "ny": 4042,
      "ues": 4043,
      "zz": 4044,
      "repos": 4045,
      "tières": 4046,
      "paraître": 4047,
      "arbres": 4048,
      "comédi": 4049,
      "déses": 4050,
      "liers": 4051,
      "concur": 4052,
      "proté": 4053,
      "apparti": 4054,
      "permettre": 4055,
      "same": 4056,
      "gueu": 4057,
      "rock": 4058,
      "station": 4059,
      "ador": 4060,
      "boucher": 4061,
      "lises": 4062,
      "consiste": 4063,
      "brit": 4064,
      "rappel": 4065,
      "voile": 4066,
      "banque": 4067,
      "grosses": 4068,
      "domaines": 4069,
      "catas": 4070,
      "ieuse": 4071,
      "épouse": 4072,
      "spécialis": 4073,
      "quitte": 4074,
      "élève": 4075,
      "confir": 4076,
      "monstre": 4077,
      "vivant": 4078,
      "cellu": 4079,
      "chapeau": 4080,
      "gamins": 4081,
      "Séville": 4082,
      "silence": 4083,
      "établissement": 4084,
      "universe": 4085,
      "quotidien": 4086,
      "Soci": 4087,
      "alternatif": 4088,
      "individu": 4089,
      "température": 4090,
      "structure": 4091,
      "Beau": 4092,
      "Dra": 4093,
      "Eh": 4094,
      "Fer": 4095,
      "Hom": 4096,
      "Hot": 4097,
      "Jam": 4098,
      "Lam": 4099,
      "Pre": 4100,
      "Rich": 4101,
      "Sav": 4102,
      "Sous": 4103,
      "faux": 4104,
      "frais": 4105,
      "fron": 4106,
      "grés": 4107,
      "ibles": 4108,
      "nt": 4109,
      "sav": 4110,
      "spor": 4111,
      "toir": 4112,
      "uvres": 4113,
      "engage": 4114,
      "oni": 4115,
      "quette": 4116,
      "retrouvé": 4117,
      "relie": 4118,
      "patient": 4119,
      "itali": 4120,
      "pros": 4121,
      "trés": 4122,
      "sements": 4123,
      "membre": 4124,
      "dies": 4125,
      "prote": 4126,
      "provo": 4127,
      "protest": 4128,
      "exclu": 4129,
      "tées": 4130,
      "puissant": 4131,
      "human": 4132,
      "irent": 4133,
      "ménage": 4134,
      "brev": 4135,
      "vendus": 4136,
      "pén": 4137,
      "stage": 4138,
      "interprét": 4139,
      "doucement": 4140,
      "plantes": 4141,
      "débat": 4142,
      "importantes": 4143,
      "catég": 4144,
      "allons": 4145,
      "bara": 4146,
      "vitesse": 4147,
      "acteur": 4148,
      "naturel": 4149,
      "développé": 4150,
      "reçoit": 4151,
      "américaine": 4152,
      "endroits": 4153,
      "ballon": 4154,
      "myth": 4155,
      "Corne": 4156,
      "répét": 4157,
      "traduction": 4158,
      "privil": 4159,
      "fréquent": 4160,
      "automatique": 4161,
      "sculpture": 4162,
      "connaissances": 4163,
      "maîtresse": 4164,
      "faible": 4165,
      "cuisine": 4166,
      "mettez": 4167,
      "côtés": 4168,
      "faculté": 4169,
      "rivière": 4170,
      "chinois": 4171,
      "désormais": 4172,
      "cinquième": 4173,
      "britanni": 4174,
      "Bou": 4175,
      "Cent": 4176,
      "Da": 4177,
      "Fair": 4178,
      "Mus": 4179,
      "Oui": 4180,
      "boire": 4181,
      "cti": 4182,
      "caus": 4183,
      "dant": 4184,
      "gnée": 4185,
      "jur": 4186,
      "lente": 4187,
      "nasse": 4188,
      "sco": 4189,
      "vant": 4190,
      "ïs": 4191,
      "ennu": 4192,
      "rem": 4193,
      "reuse": 4194,
      "remerci": 4195,
      "inclu": 4196,
      "lesquelles": 4197,
      "parnasse": 4198,
      "sive": 4199,
      "ridi": 4200,
      "licence": 4201,
      "pluie": 4202,
      "agir": 4203,
      "appréci": 4204,
      "excel": 4205,
      "grat": 4206,
      "perdre": 4207,
      "poé": 4208,
      "nir": 4209,
      "inscrit": 4210,
      "gué": 4211,
      "langage": 4212,
      "trouvent": 4213,
      "courir": 4214,
      "boule": 4215,
      "assemb": 4216,
      "pouvais": 4217,
      "tourner": 4218,
      "bril": 4219,
      "créatures": 4220,
      "demeure": 4221,
      "singu": 4222,
      "Quelle": 4223,
      "érir": 4224,
      "frères": 4225,
      "candi": 4226,
      "calme": 4227,
      "siècles": 4228,
      "morts": 4229,
      "fonctions": 4230,
      "entièrement": 4231,
      "animal": 4232,
      "mariée": 4233,
      "source": 4234,
      "espèces": 4235,
      "associations": 4236,
      "mouvements": 4237,
      "particulière": 4238,
      "prêtres": 4239,
      "malade": 4240,
      "essayé": 4241,
      "précisément": 4242,
      "noirs": 4243,
      "trêve": 4244,
      "aimait": 4245,
      "capitaine": 4246,
      "Montparnasse": 4247,
      "épisodes": 4248,
      "empêcher": 4249,
      "commande": 4250,
      "discuter": 4251,
      "exerci": 4252,
      "diplôme": 4253,
      "fantasy": 4254,
      "pêche": 4255,
      "parfaitement": 4256,
      "ambiance": 4257,
      "Voilà": 4258,
      "Corneille": 4259,
      "Fairy": 4260,
      "AN": 4261,
      "Elles": 4262,
      "IU": 4263,
      "Met": 4264,
      "Plus": 4265,
      "ST": 4266,
      "Tony": 4267,
      "Vi": 4268,
      "Ven": 4269,
      "adul": 4270,
      "bro": 4271,
      "basse": 4272,
      "fre": 4273,
      "gin": 4274,
      "ld": 4275,
      "nari": 4276,
      "oté": 4277,
      "rav": 4278,
      "san": 4279,
      "sag": 4280,
      "sable": 4281,
      "èche": 4282,
      "ley": 4283,
      "anmoins": 4284,
      "repas": 4285,
      "infini": 4286,
      "auquel": 4287,
      "tiennent": 4288,
      "triste": 4289,
      "urent": 4290,
      "éto": 4291,
      "divin": 4292,
      "pourra": 4293,
      "toucher": 4294,
      "donnée": 4295,
      "vir": 4296,
      "provis": 4297,
      "amitié": 4298,
      "cope": 4299,
      "coût": 4300,
      "bonnes": 4301,
      "couper": 4302,
      "immi": 4303,
      "tension": 4304,
      "adoles": 4305,
      "view": 4306,
      "fonda": 4307,
      "travaillent": 4308,
      "visite": 4309,
      "joueurs": 4310,
      "oyens": 4311,
      "ouvertes": 4312,
      "ouverture": 4313,
      "contrat": 4314,
      "présenter": 4315,
      "olive": 4316,
      "professeurs": 4317,
      "chimie": 4318,
      "épous": 4319,
      "animation": 4320,
      "aliment": 4321,
      "articles": 4322,
      "choisir": 4323,
      "compagnie": 4324,
      "établi": 4325,
      "prêt": 4326,
      "amené": 4327,
      "sites": 4328,
      "ographique": 4329,
      "malheureux": 4330,
      "capitale": 4331,
      "responsabilité": 4332,
      "scientifiques": 4333,
      "locaux": 4334,
      "chansons": 4335,
      "dirige": 4336,
      "diverses": 4337,
      "rejoint": 4338,
      "George": 4339,
      "fruits": 4340,
      "catholique": 4341,
      "scénari": 4342,
      "réflexion": 4343,
      "magnifique": 4344,
      "coiff": 4345,
      "Borde": 4346,
      "Don": 4347,
      "King": 4348,
      "Médit": 4349,
      "You": 4350,
      "cler": 4351,
      "fl": 4352,
      "fraî": 4353,
      "mus": 4354,
      "nité": 4355,
      "ote": 4356,
      "pée": 4357,
      "usion": 4358,
      "rece": 4359,
      "euf": 4360,
      "entes": 4361,
      "pav": 4362,
      "intelle": 4363,
      "parut": 4364,
      "parallè": 4365,
      "alcool": 4366,
      "passa": 4367,
      "dimen": 4368,
      "démon": 4369,
      "atoires": 4370,
      "donna": 4371,
      "condition": 4372,
      "appro": 4373,
      "exposition": 4374,
      "finit": 4375,
      "lots": 4376,
      "images": 4377,
      "mange": 4378,
      "range": 4379,
      "notes": 4380,
      "ingen": 4381,
      "attach": 4382,
      "ctor": 4383,
      "différente": 4384,
      "importants": 4385,
      "beso": 4386,
      "portes": 4387,
      "appelée": 4388,
      "découvre": 4389,
      "allés": 4390,
      "permettant": 4391,
      "fonctionnement": 4392,
      "communes": 4393,
      "étrange": 4394,
      "réaliser": 4395,
      "projets": 4396,
      "meilleure": 4397,
      "professionnel": 4398,
      "profondément": 4399,
      "rayons": 4400,
      "hypo": 4401,
      "essentiel": 4402,
      "application": 4403,
      "Noël": 4404,
      "instrument": 4405,
      "municipa": 4406,
      "séries": 4407,
      "administration": 4408,
      "suffisamment": 4409,
      "économique": 4410,
      "littérature": 4411,
      "monuments": 4412,
      "immeubles": 4413,
      "événements": 4414,
      "noeud": 4415,
      "Raoul": 4416,
      "maternelle": 4417,
      "fromage": 4418,
      "Sophocle": 4419,
      "contacts": 4420,
      "samedi": 4421,
      "Aw": 4422,
      "Aca": 4423,
      "Bret": 4424,
      "Mich": 4425,
      "Nord": 4426,
      "Sch": 4427,
      "Tail": 4428,
      "ache": 4429,
      "blé": 4430,
      "barrière": 4431,
      "cav": 4432,
      "fli": 4433,
      "gère": 4434,
      "hen": 4435,
      "saient": 4436,
      "top": 4437,
      "voire": 4438,
      "vrais": 4439,
      "ève": 4440,
      "émission": 4441,
      "espr": 4442,
      "aurai": 4443,
      "seille": 4444,
      "choc": 4445,
      "étap": 4446,
      "condam": 4447,
      "astron": 4448,
      "accé": 4449,
      "pus": 4450,
      "abor": 4451,
      "termes": 4452,
      "cros": 4453,
      "dise": 4454,
      "guit": 4455,
      "aler": 4456,
      "sées": 4457,
      "beauté": 4458,
      "rentré": 4459,
      "rentrée": 4460,
      "compens": 4461,
      "apport": 4462,
      "ventes": 4463,
      "mises": 4464,
      "istère": 4465,
      "malheur": 4466,
      "restait": 4467,
      "rendez": 4468,
      "tourne": 4469,
      "interrom": 4470,
      "dore": 4471,
      "féri": 4472,
      "soirées": 4473,
      "logie": 4474,
      "connaissent": 4475,
      "apparaît": 4476,
      "durée": 4477,
      "Comment": 4478,
      "constat": 4479,
      "consid": 4480,
      "étudier": 4481,
      "dragon": 4482,
      "écouter": 4483,
      "faces": 4484,
      "considérable": 4485,
      "quantité": 4486,
      "pierres": 4487,
      "défendre": 4488,
      "total": 4489,
      "numé": 4490,
      "participer": 4491,
      "hôpit": 4492,
      "chrétiens": 4493,
      "désir": 4494,
      "assurer": 4495,
      "oeuvre": 4496,
      "démocra": 4497,
      "Internet": 4498,
      "véhicules": 4499,
      "efforts": 4500,
      "collaboration": 4501,
      "boîte": 4502,
      "éventuellement": 4503,
      "viande": 4504,
      "distance": 4505,
      "baraques": 4506,
      "esprits": 4507,
      "Aux": 4508,
      "CD": 4509,
      "CE": 4510,
      "Davi": 4511,
      "Hu": 4512,
      "Ier": 4513,
      "Joc": 4514,
      "Lar": 4515,
      "P1": 4516,
      "Ser": 4517,
      "Sainte": 4518,
      "adé": 4519,
      "danger": 4520,
      "dats": 4521,
      "faction": 4522,
      "gons": 4523,
      "ira": 4524,
      "sante": 4525,
      "scan": 4526,
      "yant": 4527,
      "âmes": 4528,
      "éra": 4529,
      "envoie": 4530,
      "devenue": 4531,
      "anque": 4532,
      "retraite": 4533,
      "entour": 4534,
      "illé": 4535,
      "aison": 4536,
      "tifi": 4537,
      "traî": 4538,
      "chass": 4539,
      "omes": 4540,
      "lumin": 4541,
      "attribu": 4542,
      "lié": 4543,
      "dons": 4544,
      "ciers": 4545,
      "rarement": 4546,
      "accent": 4547,
      "aindre": 4548,
      "proces": 4549,
      "provin": 4550,
      "songe": 4551,
      "umes": 4552,
      "amant": 4553,
      "exécu": 4554,
      "finale": 4555,
      "perf": 4556,
      "autés": 4557,
      "poche": 4558,
      "guide": 4559,
      "métiers": 4560,
      "contente": 4561,
      "pha": 4562,
      "verra": 4563,
      "plateau": 4564,
      "corri": 4565,
      "alisme": 4566,
      "brus": 4567,
      "sociétés": 4568,
      "trame": 4569,
      "demois": 4570,
      "Marseille": 4571,
      "vues": 4572,
      "colère": 4573,
      "judo": 4574,
      "histoires": 4575,
      "banc": 4576,
      "appellent": 4577,
      "Ned": 4578,
      "dommage": 4579,
      "fonctionne": 4580,
      "chien": 4581,
      "romans": 4582,
      "sixième": 4583,
      "acteurs": 4584,
      "Jeanne": 4585,
      "oindre": 4586,
      "enseigner": 4587,
      "arrivait": 4588,
      "regardait": 4589,
      "meilleurs": 4590,
      "méthodes": 4591,
      "particuliers": 4592,
      "atteindre": 4593,
      "Secon": 4594,
      "croyez": 4595,
      "participe": 4596,
      "anciennes": 4597,
      "donnait": 4598,
      "marchés": 4599,
      "envoyé": 4600,
      "obligatoire": 4601,
      "propriété": 4602,
      "artistes": 4603,
      "enregistrement": 4604,
      "moderne": 4605,
      "Gött": 4606,
      "erranée": 4607,
      "tragédie": 4608,
      "trottoir": 4609,
      "pétanque": 4610,
      "Rampal": 4611,
      "Méditerranée": 4612,
      "Bretagne": 4613,
      "David": 4614,
      "Jocaste": 4615,
      "Göttingen": 4616,
      "Ama": 4617,
      "Amer": 4618,
      "Belle": 4619,
      "Blan": 4620,
      "CM": 4621,
      "Cal": 4622,
      "Col": 4623,
      "EP": 4624,
      "Ed": 4625,
      "Poli": 4626,
      "Th": 4627,
      "atement": 4628,
      "titu": 4629,
      "van": 4630,
      "zan": 4631,
      "épau": 4632,
      "ïus": 4633,
      "ône": 4634,
      "quets": 4635,
      "reti": 4636,
      "refaire": 4637,
      "reconnaître": 4638,
      "papa": 4639,
      "infin": 4640,
      "isant": 4641,
      "unités": 4642,
      "aises": 4643,
      "trat": 4644,
      "trations": 4645,
      "seaux": 4646,
      "chante": 4647,
      "paravant": 4648,
      "combin": 4649,
      "dieu": 4650,
      "déplace": 4651,
      "répli": 4652,
      "donnant": 4653,
      "aggl": 4654,
      "pure": 4655,
      "examen": 4656,
      "finir": 4657,
      "gren": 4658,
      "persu": 4659,
      "male": 4660,
      "mafia": 4661,
      "auton": 4662,
      "pot": 4663,
      "itement": 4664,
      "manga": 4665,
      "mén": 4666,
      "breton": 4667,
      "fig": 4668,
      "fiction": 4669,
      "mettant": 4670,
      "trouva": 4671,
      "longueur": 4672,
      "ings": 4673,
      "piers": 4674,
      "compl": 4675,
      "compter": 4676,
      "minim": 4677,
      "églises": 4678,
      "jouent": 4679,
      "voyais": 4680,
      "voyant": 4681,
      "Chillon": 4682,
      "printemps": 4683,
      "génér": 4684,
      "sûrement": 4685,
      "Marvel": 4686,
      "plant": 4687,
      "voisin": 4688,
      "clin": 4689,
      "permettent": 4690,
      "commençait": 4691,
      "naturelle": 4692,
      "naturellement": 4693,
      "Compa": 4694,
      "chanteur": 4695,
      "batterie": 4696,
      "hauteur": 4697,
      "équipes": 4698,
      "ariat": 4699,
      "principaux": 4700,
      "dessinateur": 4701,
      "réalisé": 4702,
      "proposer": 4703,
      "conduit": 4704,
      "concerts": 4705,
      "oublié": 4706,
      "Note": 4707,
      "sensible": 4708,
      "adaptation": 4709,
      "branche": 4710,
      "imagination": 4711,
      "Belgique": 4712,
      "Rouge": 4713,
      "littéraire": 4714,
      "Malgré": 4715,
      "décision": 4716,
      "détails": 4717,
      "huiles": 4718,
      "parisienne": 4719,
      "foot": 4720,
      "ETA": 4721,
      "civilisation": 4722,
      "Grande": 4723,
      "Thomas": 4724,
      "catastrop": 4725,
      "Richard": 4726,
      "Académie": 4727,
      "Ameri": 4728,
      "(,": 4729,
      "Bro": 4730,
      "DE": 4731,
      "MI": 4732,
      "Nor": 4733,
      "Pal": 4734,
      "Te": 4735,
      "Ver": 4736,
      "bur": 4737,
      "fle": 4738,
      "fis": 4739,
      "fat": 4740,
      "fleur": 4741,
      "gnon": 4742,
      "ice": 4743,
      "jal": 4744,
      "ko": 4745,
      "mait": 4746,
      "rat": 4747,
      "sages": 4748,
      "wal": 4749,
      "École": 4750,
      "éb": 4751,
      "éprouv": 4752,
      "envers": 4753,
      "envelop": 4754,
      "oncle": 4755,
      "quali": 4756,
      "regroupe": 4757,
      "septi": 4758,
      "parcours": 4759,
      "parlaient": 4760,
      "débrou": 4761,
      "libé": 4762,
      "convi": 4763,
      "convers": 4764,
      "concept": 4765,
      "euros": 4766,
      "ressort": 4767,
      "seraient": 4768,
      "moine": 4769,
      "inspect": 4770,
      "disparu": 4771,
      "aussitôt": 4772,
      "rose": 4773,
      "Legend": 4774,
      "génie": 4775,
      "hédra": 4776,
      "intha": 4777,
      "lantique": 4778,
      "cala": 4779,
      "cales": 4780,
      "longues": 4781,
      "emplois": 4782,
      "vert": 4783,
      "Laïus": 4784,
      "ivre": 4785,
      "implant": 4786,
      "oly": 4787,
      "pressions": 4788,
      "franch": 4789,
      "douleur": 4790,
      "aliser": 4791,
      "crée": 4792,
      "habite": 4793,
      "ouverts": 4794,
      "Quimper": 4795,
      "connaissez": 4796,
      "chargé": 4797,
      "débar": 4798,
      "calcu": 4799,
      "banlieu": 4800,
      "cathédra": 4801,
      "Inde": 4802,
      "manipu": 4803,
      "sombre": 4804,
      "institut": 4805,
      "entière": 4806,
      "mena": 4807,
      "solutions": 4808,
      "blanche": 4809,
      "regardé": 4810,
      "sentiment": 4811,
      "tableau": 4812,
      "situé": 4813,
      "artifici": 4814,
      "proposé": 4815,
      "choisit": 4816,
      "évoluer": 4817,
      "terrains": 4818,
      "profondeur": 4819,
      "Red": 4820,
      "Max": 4821,
      "immense": 4822,
      "acheté": 4823,
      "Jacintha": 4824,
      "éditeur": 4825,
      "accepte": 4826,
      "remarqu": 4827,
      "pollu": 4828,
      "compétences": 4829,
      "fédéral": 4830,
      "documents": 4831,
      "restauration": 4832,
      "espagnols": 4833,
      "doctor": 4834,
      "nourrit": 4835,
      "robots": 4836,
      "copains": 4837,
      "équili": 4838,
      "dossier": 4839,
      "Madame": 4840,
      "statut": 4841,
      "électricité": 4842,
      "armure": 4843,
      "maîtrise": 4844,
      "Christine": 4845,
      "souverain": 4846,
      "dangereux": 4847,
      "émotion": 4848,
      "négoci": 4849,
      "Côte": 4850,
      "bizarre": 4851,
      "appartient": 4852,
      "fondament": 4853,
      "scénario": 4854,
      "processus": 4855,
      "perfection": 4856,
      "agglomé": 4857,
      "septième": 4858,
      ",,.": 4859,
      "Ad": 4860,
      "Had": 4861,
      "LE": 4862,
      "MM": 4863,
      "Moyen": 4864,
      "cte": 4865,
      "cens": 4866,
      "gel": 4867,
      "lai": 4868,
      "murs": 4869,
      "navi": 4870,
      "tab": 4871,
      "tente": 4872,
      "élabor": 4873,
      "onie": 4874,
      "redou": 4875,
      "eries": 4876,
      "lame": 4877,
      "isée": 4878,
      "aud": 4879,
      "prun": 4880,
      "tral": 4881,
      "parlant": 4882,
      "arbre": 4883,
      "dévo": 4884,
      "cieux": 4885,
      "sug": 4886,
      "vignes": 4887,
      "prodi": 4888,
      "voler": 4889,
      "amène": 4890,
      "mier": 4891,
      "témoi": 4892,
      "gris": 4893,
      "perte": 4894,
      "quoique": 4895,
      "disci": 4896,
      "vachement": 4897,
      "marbre": 4898,
      "marquée": 4899,
      "venez": 4900,
      "lande": 4901,
      "café": 4902,
      "emprun": 4903,
      "mercre": 4904,
      "voyages": 4905,
      "soutien": 4906,
      "enfance": 4907,
      "intervention": 4908,
      "régation": 4909,
      "profs": 4910,
      "bases": 4911,
      "cription": 4912,
      "plans": 4913,
      "prime": 4914,
      "And": 4915,
      "Anto": 4916,
      "lettes": 4917,
      "continent": 4918,
      "allaient": 4919,
      "rug": 4920,
      "occupé": 4921,
      "mené": 4922,
      "portion": 4923,
      "bataille": 4924,
      "citoyens": 4925,
      "sourire": 4926,
      "passée": 4927,
      "échap": 4928,
      "mairie": 4929,
      "quitté": 4930,
      "embau": 4931,
      "proprement": 4932,
      "London": 4933,
      "existent": 4934,
      "américains": 4935,
      "composé": 4936,
      "cirque": 4937,
      "Trouve": 4938,
      "oublier": 4939,
      "festival": 4940,
      "Robbie": 4941,
      "déclare": 4942,
      "compliqué": 4943,
      "preuves": 4944,
      "morceau": 4945,
      "paraissait": 4946,
      "docteur": 4947,
      "doigts": 4948,
      "assure": 4949,
      "imprimerie": 4950,
      "immeuble": 4951,
      "expérien": 4952,
      "référence": 4953,
      "couvent": 4954,
      "contempor": 4955,
      "allocation": 4956,
      "déplacer": 4957,
      "Pep": 4958,
      "immédiatement": 4959,
      "évalu": 4960,
      "étoiles": 4961,
      "Bordeaux": 4962,
      "intellectu": 4963,
      "minimum": 4964,
      "agglomération": 4965,
      "Aff": 4966,
      "Che": 4967,
      "Clau": 4968,
      "Dur": 4969,
      "Gaul": 4970,
      "Ly": 4971,
      "Mer": 4972,
      "Prin": 4973,
      "Rome": 4974,
      "Sans": 4975,
      "VI": 4976,
      "Vol": 4977,
      "glis": 4978,
      "gout": 4979,
      "grec": 4980,
      "mins": 4981,
      "mène": 4982,
      "rô": 4983,
      "rares": 4984,
      "ski": 4985,
      "tan": 4986,
      "taux": 4987,
      "çants": 4988,
      "écar": 4989,
      "debout": 4990,
      "ana": 4991,
      "reprend": 4992,
      "regrou": 4993,
      "remettre": 4994,
      "euil": 4995,
      "intri": 4996,
      "quefort": 4997,
      "aurez": 4998,
      "prête": 4999,
      "semi": 5000,
      "chet": 5001,
      "chère": 5002,
      "chaus": 5003,
      "ométr": 5004,
      "parte": 5005,
      "urb": 5006,
      "étend": 5007,
      "dique": 5008,
      "digne": 5009,
      "dép": 5010,
      "résou": 5011,
      "civi": 5012,
      "acles": 5013,
      "accomp": 5014,
      "ands": 5015,
      "tue": 5016,
      "tuer": 5017,
      "finance": 5018,
      "humains": 5019,
      "modest": 5020,
      "coupe": 5021,
      "dison": 5022,
      "mangé": 5023,
      "format": 5024,
      "vraie": 5025,
      "cherch": 5026,
      "empire": 5027,
      "ingh": 5028,
      "ado": 5029,
      "Entre": 5030,
      "vérité": 5031,
      "corne": 5032,
      "internet": 5033,
      "culaire": 5034,
      "publication": 5035,
      "demeu": 5036,
      "voisins": 5037,
      "larmes": 5038,
      "prenez": 5039,
      "aye": 5040,
      "penses": 5041,
      "pensais": 5042,
      "appartement": 5043,
      "épais": 5044,
      "gagné": 5045,
      "Charmant": 5046,
      "faudra": 5047,
      "arrivés": 5048,
      "orelli": 5049,
      "capables": 5050,
      "conduire": 5051,
      "descendre": 5052,
      "composée": 5053,
      "artiste": 5054,
      "complète": 5055,
      "situe": 5056,
      "remarque": 5057,
      "destinée": 5058,
      "Thénar": 5059,
      "patients": 5060,
      "commercial": 5061,
      "largement": 5062,
      "phénomènes": 5063,
      "secrétaire": 5064,
      "chiffre": 5065,
      "vieillard": 5066,
      "absence": 5067,
      "Benoni": 5068,
      "transports": 5069,
      "mathématiciens": 5070,
      "Garros": 5071,
      "logiciel": 5072,
      "intelligence": 5073,
      "tapis": 5074,
      "dialo": 5075,
      "Banach": 5076,
      "Savoie": 5077,
      "britannique": 5078,
      "Antoine": 5079,
      "expériences": 5080,
      "Gaultier": 5081,
      "Thénardier": 5082,
      "Alex": 5083,
      "Cour": 5084,
      "Cah": 5085,
      "Dar": 5086,
      "Eu": 5087,
      "Elec": 5088,
      "Fin": 5089,
      "He": 5090,
      "Hé": 5091,
      "Ir": 5092,
      "Loire": 5093,
      "Mil": 5094,
      "Mas": 5095,
      "Mab": 5096,
      "Où": 5097,
      "Peu": 5098,
      "Rac": 5099,
      "cah": 5100,
      "foyer": 5101,
      "hos": 5102,
      "hec": 5103,
      "hop": 5104,
      "otion": 5105,
      "océan": 5106,
      "tort": 5107,
      "étions": 5108,
      "aides": 5109,
      "quées": 5110,
      "delà": 5111,
      "lecteurs": 5112,
      "remont": 5113,
      "reconnu": 5114,
      "eue": 5115,
      "ino": 5116,
      "indé": 5117,
      "indis": 5118,
      "ister": 5119,
      "auparavant": 5120,
      "orn": 5121,
      "prest": 5122,
      "chées": 5123,
      "sière": 5124,
      "comité": 5125,
      "démar": 5126,
      "pourraient": 5127,
      "liens": 5128,
      "donnent": 5129,
      "rappe": 5130,
      "osité": 5131,
      "vice": 5132,
      "chefs": 5133,
      "usage": 5134,
      "pert": 5135,
      "nix": 5136,
      "sols": 5137,
      "disaient": 5138,
      "marier": 5139,
      "fic": 5140,
      "sémin": 5141,
      "mettons": 5142,
      "lante": 5143,
      "trouvez": 5144,
      "cépages": 5145,
      "compor": 5146,
      "arriva": 5147,
      "triom": 5148,
      "voulaient": 5149,
      "égal": 5150,
      "attitude": 5151,
      "itime": 5152,
      "international": 5153,
      "interview": 5154,
      "doux": 5155,
      "ennemis": 5156,
      "Celui": 5157,
      "crime": 5158,
      "dernières": 5159,
      "connaissait": 5160,
      "aimez": 5161,
      "bateau": 5162,
      "pratiques": 5163,
      "organisme": 5164,
      "dessinées": 5165,
      "succes": 5166,
      "réfu": 5167,
      "primaire": 5168,
      "située": 5169,
      "populaire": 5170,
      "signes": 5171,
      "ouvrier": 5172,
      "pousser": 5173,
      "demandait": 5174,
      "radium": 5175,
      "Dijon": 5176,
      "instruments": 5177,
      "expériment": 5178,
      "chaud": 5179,
      "original": 5180,
      "chrétienne": 5181,
      "gile": 5182,
      "architecte": 5183,
      "musiciens": 5184,
      "détruit": 5185,
      "avoue": 5186,
      "monument": 5187,
      "démonstration": 5188,
      "Sky": 5189,
      "merveilleux": 5190,
      "signifi": 5191,
      "psych": 5192,
      "excuse": 5193,
      "orthographe": 5194,
      "apparaissent": 5195,
      "médecine": 5196,
      "cellule": 5197,
      "protection": 5198,
      "considère": 5199,
      "Amazan": 5200,
      "inspecteur": 5201,
      "Cons": 5202,
      "Dis": 5203,
      "Er": 5204,
      "Gir": 5205,
      "Pla": 5206,
      "Rol": 5207,
      "Sy": 5208,
      "Scy": 5209,
      "bêtes": 5210,
      "folk": 5211,
      "iel": 5212,
      "ms": 5213,
      "odore": 5214,
      "pant": 5215,
      "plon": 5216,
      "pendu": 5217,
      "rants": 5218,
      "vague": 5219,
      "xie": 5220,
      "éné": 5221,
      "aimais": 5222,
      "quérir": 5223,
      "enthou": 5224,
      "estim": 5225,
      "tian": 5226,
      "seigneur": 5227,
      "arts": 5228,
      "lut": 5229,
      "composition": 5230,
      "dienne": 5231,
      "diminu": 5232,
      "dizaine": 5233,
      "décrire": 5234,
      "récla": 5235,
      "récol": 5236,
      "résolu": 5237,
      "cible": 5238,
      "contra": 5239,
      "sure": 5240,
      "acces": 5241,
      "accro": 5242,
      "via": 5243,
      "agi": 5244,
      "peuples": 5245,
      "coeur": 5246,
      "cohé": 5247,
      "ffe": 5248,
      "expl": 5249,
      "pointe": 5250,
      "veaux": 5251,
      "guille": 5252,
      "oppos": 5253,
      "robe": 5254,
      "possibles": 5255,
      "préhen": 5256,
      "lancer": 5257,
      "boules": 5258,
      "véri": 5259,
      "obé": 5260,
      "tric": 5261,
      "angle": 5262,
      "renon": 5263,
      "renom": 5264,
      "internationale": 5265,
      "alise": 5266,
      "alisé": 5267,
      "bru": 5268,
      "montag": 5269,
      "fémin": 5270,
      "affi": 5271,
      "rêve": 5272,
      "rêver": 5273,
      "sortent": 5274,
      "sortait": 5275,
      "fortune": 5276,
      "apparence": 5277,
      "Arc": 5278,
      "Indes": 5279,
      "rues": 5280,
      "résist": 5281,
      "gala": 5282,
      "détour": 5283,
      "principale": 5284,
      "capacité": 5285,
      "capacités": 5286,
      "attendant": 5287,
      "professionnels": 5288,
      "changement": 5289,
      "ouvriers": 5290,
      "conseils": 5291,
      "troupes": 5292,
      "archie": 5293,
      "cierges": 5294,
      "ogie": 5295,
      "phénix": 5296,
      "ministre": 5297,
      "Notre": 5298,
      "patience": 5299,
      "sculpt": 5300,
      "économie": 5301,
      "physiques": 5302,
      "studio": 5303,
      "industriel": 5304,
      "zones": 5305,
      "commandant": 5306,
      "dynam": 5307,
      "opinion": 5308,
      "Institut": 5309,
      "saga": 5310,
      "phase": 5311,
      "Compagnie": 5312,
      "enthousi": 5313,
      "Alig": 5314,
      "Bay": 5315,
      "Cali": 5316,
      "ED": 5317,
      "Leur": 5318,
      "Mor": 5319,
      "Net": 5320,
      "Oc": 5321,
      "Ste": 5322,
      "Sorelli": 5323,
      "bil": 5324,
      "bale": 5325,
      "blon": 5326,
      "dente": 5327,
      "drôle": 5328,
      "ile": 5329,
      "lori": 5330,
      "nou": 5331,
      "pur": 5332,
      "plé": 5333,
      "rine": 5334,
      "sab": 5335,
      "vus": 5336,
      "wn": 5337,
      "âgées": 5338,
      "élu": 5339,
      "éli": 5340,
      "ême": 5341,
      "env": 5342,
      "enlever": 5343,
      "enquête": 5344,
      "onde": 5345,
      "outre": 5346,
      "quad": 5347,
      "anc": 5348,
      "rejet": 5349,
      "inet": 5350,
      "inti": 5351,
      "tir": 5352,
      "dessins": 5353,
      "sel": 5354,
      "chim": 5355,
      "argu": 5356,
      "neige": 5357,
      "compar": 5358,
      "ates": 5359,
      "poursuivre": 5360,
      "conc": 5361,
      "conso": 5362,
      "congé": 5363,
      "acu": 5364,
      "accou": 5365,
      "actes": 5366,
      "agents": 5367,
      "surprise": 5368,
      "andre": 5369,
      "procla": 5370,
      "proposition": 5371,
      "procès": 5372,
      "proxim": 5373,
      "amou": 5374,
      "approche": 5375,
      "oirs": 5376,
      "mien": 5377,
      "mira": 5378,
      "puissent": 5379,
      "polon": 5380,
      "crut": 5381,
      "soy": 5382,
      "impa": 5383,
      "forces": 5384,
      "fortement": 5385,
      "noy": 5386,
      "fautes": 5387,
      "nomme": 5388,
      "cherché": 5389,
      "misère": 5390,
      "plats": 5391,
      "vég": 5392,
      "obel": 5393,
      "obst": 5394,
      "embar": 5395,
      "tourn": 5396,
      "soup": 5397,
      "gardé": 5398,
      "Chili": 5399,
      "aîné": 5400,
      "publiée": 5401,
      "erreur": 5402,
      "trace": 5403,
      "magique": 5404,
      "personnellement": 5405,
      "intéresser": 5406,
      "voies": 5407,
      "sortes": 5408,
      "sortit": 5409,
      "principes": 5410,
      "cateur": 5411,
      "achète": 5412,
      "pouvoirs": 5413,
      "instal": 5414,
      "goû": 5415,
      "commerçants": 5416,
      "spécialement": 5417,
      "principauté": 5418,
      "médica": 5419,
      "tableaux": 5420,
      "retourne": 5421,
      "retourner": 5422,
      "systèmes": 5423,
      "apercevoir": 5424,
      "chacune": 5425,
      "établir": 5426,
      "salles": 5427,
      "troupe": 5428,
      "malades": 5429,
      "cierge": 5430,
      "amener": 5431,
      "officiel": 5432,
      "entendit": 5433,
      "entendait": 5434,
      "herbe": 5435,
      "croyait": 5436,
      "collection": 5437,
      "refus": 5438,
      "landais": 5439,
      "voulut": 5440,
      "pension": 5441,
      "collègues": 5442,
      "écrite": 5443,
      "sérieux": 5444,
      "prétend": 5445,
      "Toute": 5446,
      "conserver": 5447,
      "architecture": 5448,
      "véhicule": 5449,
      "meurt": 5450,
      "intitulé": 5451,
      "boulangerie": 5452,
      "apparemment": 5453,
      "Westingh": 5454,
      "téléphone": 5455,
      "cultures": 5456,
      "formule": 5457,
      "Michel": 5458,
      "Poligny": 5459,
      "doctorat": 5460,
      "discipl": 5461,
      "ométrie": 5462,
      "proximité": 5463,
      "Westinghouse": 5464,
      "AJ": 5465,
      "Ajou": 5466,
      "Bon": 5467,
      "Celle": 5468,
      "Del": 5469,
      "Edison": 5470,
      "Nation": 5471,
      "Ouvre": 5472,
      "Sou": 5473,
      "Stu": 5474,
      "Sole": 5475,
      "Sith": 5476,
      "XXe": 5477,
      "blo": 5478,
      "fab": 5479,
      "faus": 5480,
      "fric": 5481,
      "gence": 5482,
      "jo": 5483,
      "nal": 5484,
      "nette": 5485,
      "od": 5486,
      "pique": 5487,
      "sys": 5488,
      "wi": 5489,
      "zéro": 5490,
      "èles": 5491,
      "escal": 5492,
      "degrés": 5493,
      "lection": 5494,
      "revenu": 5495,
      "reconnaissance": 5496,
      "ention": 5497,
      "isés": 5498,
      "orie": 5499,
      "tia": 5500,
      "tic": 5501,
      "pru": 5502,
      "tristes": 5503,
      "chô": 5504,
      "omin": 5505,
      "parrain": 5506,
      "arme": 5507,
      "armé": 5508,
      "mention": 5509,
      "dia": 5510,
      "diab": 5511,
      "déso": 5512,
      "démarche": 5513,
      "déchets": 5514,
      "lib": 5515,
      "réels": 5516,
      "réseaux": 5517,
      "concent": 5518,
      "mpe": 5519,
      "agence": 5520,
      "ecra": 5521,
      "mid": 5522,
      "mond": 5523,
      "motiv": 5524,
      "nies": 5525,
      "dispose": 5526,
      "manquait": 5527,
      "forment": 5528,
      "vaches": 5529,
      "notion": 5530,
      "péné": 5531,
      "ailli": 5532,
      "nesol": 5533,
      "maintenir": 5534,
      "nommée": 5535,
      "empereur": 5536,
      "verre": 5537,
      "carrés": 5538,
      "obtenu": 5539,
      "restée": 5540,
      "intég": 5541,
      "Cham": 5542,
      "brut": 5543,
      "sociales": 5544,
      "ther": 5545,
      "connaissais": 5546,
      "juger": 5547,
      "traiter": 5548,
      "intéressé": 5549,
      "clou": 5550,
      "tombé": 5551,
      "Augus": 5552,
      "entiers": 5553,
      "naturels": 5554,
      "porté": 5555,
      "origines": 5556,
      "blanch": 5557,
      "million": 5558,
      "dessinée": 5559,
      "souri": 5560,
      "illage": 5561,
      "échelle": 5562,
      "échec": 5563,
      "semblent": 5564,
      "regardant": 5565,
      "journalistes": 5566,
      "représentation": 5567,
      "salon": 5568,
      "officiellement": 5569,
      "refuse": 5570,
      "signal": 5571,
      "envoyer": 5572,
      "originale": 5573,
      "précipit": 5574,
      "empêche": 5575,
      "Rozaine": 5576,
      "prisonniers": 5577,
      "allemands": 5578,
      "Théodore": 5579,
      "gamin": 5580,
      "branches": 5581,
      "restaurant": 5582,
      "jambes": 5583,
      "vendredi": 5584,
      "employé": 5585,
      "paraissent": 5586,
      "physicien": 5587,
      "canton": 5588,
      "Lorsque": 5589,
      "jolie": 5590,
      "évènement": 5591,
      "Stane": 5592,
      "réfléch": 5593,
      "dossiers": 5594,
      "mathématicien": 5595,
      "carrément": 5596,
      "Ouest": 5597,
      "lundi": 5598,
      "défauts": 5599,
      "Certains": 5600,
      "diamants": 5601,
      "phrase": 5602,
      "structures": 5603,
      "crypt": 5604,
      "magazine": 5605,
      "concurrence": 5606,
      "universelle": 5607,
      "dimension": 5608,
      "numéros": 5609,
      "conversation": 5610,
      "nourriture": 5611,
      "mercredi": 5612,
      "Peppers": 5613,
      "guillemets": 5614,
      "systé": 5615,
      "Ac": 5616,
      "Asi": 5617,
      "BS": 5618,
      "CP": 5619,
      "Père": 5620,
      "Rest": 5621,
      "T2": 5622,
      "Ve": 5623,
      "atif": 5624,
      "bla": 5625,
      "bec": 5626,
      "ciles": 5627,
      "dî": 5628,
      "dar": 5629,
      "frap": 5630,
      "han": 5631,
      "ium": 5632,
      "sché": 5633,
      "titude": 5634,
      "encour": 5635,
      "quences": 5636,
      "degré": 5637,
      "ann": 5638,
      "refait": 5639,
      "estre": 5640,
      "section": 5641,
      "chers": 5642,
      "omb": 5643,
      "ell": 5644,
      "décrit": 5645,
      "réd": 5646,
      "rév": 5647,
      "rédi": 5648,
      "eures": 5649,
      "ast": 5650,
      "aces": 5651,
      "active": 5652,
      "vigno": 5653,
      "agissait": 5654,
      "aintes": 5655,
      "ressent": 5656,
      "amus": 5657,
      "amie": 5658,
      "micros": 5659,
      "finan": 5660,
      "matiques": 5661,
      "cure": 5662,
      "mesures": 5663,
      "mov": 5664,
      "session": 5665,
      "ophe": 5666,
      "traver": 5667,
      "mérite": 5668,
      "postes": 5669,
      "ords": 5670,
      "ordres": 5671,
      "valeurs": 5672,
      "contes": 5673,
      "metteur": 5674,
      "cache": 5675,
      "cacher": 5676,
      "versions": 5677,
      "occident": 5678,
      "complet": 5679,
      "ventions": 5680,
      "restent": 5681,
      "visiter": 5682,
      "tourisme": 5683,
      "intégr": 5684,
      "interpr": 5685,
      "milieux": 5686,
      "ponctu": 5687,
      "gration": 5688,
      "vul": 5689,
      "charges": 5690,
      "voici": 5691,
      "portait": 5692,
      "pensé": 5693,
      "forts": 5694,
      "nationales": 5695,
      "expliqué": 5696,
      "chanter": 5697,
      "livrer": 5698,
      "théorique": 5699,
      "gagne": 5700,
      "dessiner": 5701,
      "regarda": 5702,
      "précise": 5703,
      "signé": 5704,
      "croit": 5705,
      "nellement": 5706,
      "supplé": 5707,
      "prêts": 5708,
      "concernant": 5709,
      "culturel": 5710,
      "attaché": 5711,
      "officielle": 5712,
      "règne": 5713,
      "tendres": 5714,
      "villages": 5715,
      "sacri": 5716,
      "secondaire": 5717,
      "geste": 5718,
      "chrétien": 5719,
      "ologne": 5720,
      "industrie": 5721,
      "influen": 5722,
      "Avant": 5723,
      "terminer": 5724,
      "aperçoit": 5725,
      "bibliothèques": 5726,
      "admirable": 5727,
      "rejoindre": 5728,
      "fantastique": 5729,
      "chiffres": 5730,
      "gloire": 5731,
      "trompe": 5732,
      "céréales": 5733,
      "identi": 5734,
      "Harry": 5735,
      "réfléchir": 5736,
      "championnat": 5737,
      "viendra": 5738,
      "Bernard": 5739,
      "mystérieux": 5740,
      "historiques": 5741,
      "Tournesol": 5742,
      "distribution": 5743,
      "récupérer": 5744,
      "Ellis": 5745,
      "patrimoine": 5746,
      "Nouvelle": 5747,
      "italien": 5748,
      "Daaé": 5749,
      "poésie": 5750,
      "American": 5751,
      "walker": 5752,
      "rugby": 5753,
      "Dark": 5754,
      "Mabeuf": 5755,
      "Skywalker": 5756,
      "Aligoté": 5757,
      "envah": 5758,
      "Soleil": 5759,
      "Asimov": 5760,
      "Aven": 5761,
      "Bla": 5762,
      "Cap": 5763,
      "DI": 5764,
      "Dame": 5765,
      "Gen": 5766,
      "Hano": 5767,
      "Land": 5768,
      "N1": 5769,
      "Nat": 5770,
      "SS": 5771,
      "Sal": 5772,
      "Sac": 5773,
      "Tri": 5774,
      "Tré": 5775,
      "Ving": 5776,
      "ball": 5777,
      "caire": 5778,
      "couvert": 5779,
      "grégation": 5780,
      "hori": 5781,
      "ielle": 5782,
      "jette": 5783,
      "mâ": 5784,
      "nants": 5785,
      "naît": 5786,
      "pés": 5787,
      "spir": 5788,
      "tais": 5789,
      "têtes": 5790,
      "tables": 5791,
      "èbres": 5792,
      "îles": 5793,
      "reli": 5794,
      "relle": 5795,
      "recul": 5796,
      "reviens": 5797,
      "lave": 5798,
      "lables": 5799,
      "invo": 5800,
      "inféri": 5801,
      "isait": 5802,
      "itue": 5803,
      "ortu": 5804,
      "avoc": 5805,
      "étonn": 5806,
      "dir": 5807,
      "dios": 5808,
      "dirent": 5809,
      "décou": 5810,
      "dépl": 5811,
      "démission": 5812,
      "dériv": 5813,
      "réc": 5814,
      "cire": 5815,
      "conque": 5816,
      "concep": 5817,
      "contexte": 5818,
      "oisse": 5819,
      "victi": 5820,
      "agent": 5821,
      "ressemble": 5822,
      "tué": 5823,
      "amb": 5824,
      "bonhomme": 5825,
      "exposé": 5826,
      "terres": 5827,
      "bienne": 5828,
      "heb": 5829,
      "dispar": 5830,
      "manuel": 5831,
      "fid": 5832,
      "fices": 5833,
      "suisse": 5834,
      "stand": 5835,
      "piano": 5836,
      "courrier": 5837,
      "adore": 5838,
      "apporté": 5839,
      "central": 5840,
      "partager": 5841,
      "ives": 5842,
      "places": 5843,
      "restre": 5844,
      "préser": 5845,
      "itiers": 5846,
      "correc": 5847,
      "franchement": 5848,
      "sociaux": 5849,
      "vingts": 5850,
      "créée": 5851,
      "profite": 5852,
      "blesse": 5853,
      "théories": 5854,
      "personnelle": 5855,
      "présenté": 5856,
      "futur": 5857,
      "offrir": 5858,
      "découvert": 5859,
      "cepti": 5860,
      "commencent": 5861,
      "répondu": 5862,
      "installé": 5863,
      "occupation": 5864,
      "rette": 5865,
      "rapports": 5866,
      "organiser": 5867,
      "étudiant": 5868,
      "superbe": 5869,
      "conduite": 5870,
      "signer": 5871,
      "existait": 5872,
      "descendu": 5873,
      "pousse": 5874,
      "souffle": 5875,
      "louse": 5876,
      "réunions": 5877,
      "Seigneur": 5878,
      "définit": 5879,
      "vivants": 5880,
      "donnés": 5881,
      "prochain": 5882,
      "fabrication": 5883,
      "ajoute": 5884,
      "dames": 5885,
      "natur": 5886,
      "aperçu": 5887,
      "avancer": 5888,
      "séparation": 5889,
      "violence": 5890,
      "favorable": 5891,
      "satisfaction": 5892,
      "médecin": 5893,
      "mélange": 5894,
      "étrangers": 5895,
      "Gödel": 5896,
      "poisson": 5897,
      "modifi": 5898,
      "technologie": 5899,
      "municipalité": 5900,
      "indépendance": 5901,
      "déroule": 5902,
      "réputation": 5903,
      "disponible": 5904,
      "désespé": 5905,
      "Lamotte": 5906,
      "remercie": 5907,
      "clergé": 5908,
      "pavillon": 5909,
      "besoins": 5910,
      "scanner": 5911,
      "demoiselle": 5912,
      "Seconde": 5913,
      "cahier": 5914,
      "enthousias": 5915,
      "Califor": 5916,
      "impact": 5917,
      "Ajoute": 5918,
      "ecraft": 5919,
      "Avengers": 5920,
      "-,": 5921,
      "Avent": 5922,
      "BD": 5923,
      "Gi": 5924,
      "Lég": 5925,
      "Mu": 5926,
      "Mé": 5927,
      "Mat": 5928,
      "Nel": 5929,
      "RA": 5930,
      "Rie": 5931,
      "Seu": 5932,
      "Ti": 5933,
      "cais": 5934,
      "crayon": 5935,
      "flè": 5936,
      "foli": 5937,
      "fall": 5938,
      "flot": 5939,
      "gas": 5940,
      "hatt": 5941,
      "jure": 5942,
      "jui": 5943,
      "mité": 5944,
      "pitié": 5945,
      "renseig": 5946,
      "sois": 5947,
      "strat": 5948,
      "tors": 5949,
      "épar": 5950,
      "deu": 5951,
      "reven": 5952,
      "orph": 5953,
      "prie": 5954,
      "aveu": 5955,
      "para": 5956,
      "parten": 5957,
      "sives": 5958,
      "compose": 5959,
      "div": 5960,
      "dira": 5961,
      "diver": 5962,
      "rid": 5963,
      "rich": 5964,
      "rick": 5965,
      "cie": 5966,
      "contres": 5967,
      "confé": 5968,
      "subi": 5969,
      "vio": 5970,
      "agres": 5971,
      "proven": 5972,
      "about": 5973,
      "biais": 5974,
      "coch": 5975,
      "copie": 5976,
      "exig": 5977,
      "micro": 5978,
      "final": 5979,
      "perfor": 5980,
      "monn": 5981,
      "auto": 5982,
      "uxelles": 5983,
      "serie": 5984,
      "néanmoins": 5985,
      "lore": 5986,
      "locat": 5987,
      "crise": 5988,
      "disque": 5989,
      "dispu": 5990,
      "léger": 5991,
      "médit": 5992,
      "mérit": 5993,
      "post": 5994,
      "formid": 5995,
      "valable": 5996,
      "bref": 5997,
      "marin": 5998,
      "marrant": 5999,
      "séjour": 6000,
      "sélection": 6001,
      "ardins": 6002,
      "vieilles": 6003,
      "partait": 6004,
      "partition": 6005,
      "diffusion": 6006,
      "missions": 6007,
      "jeudi": 6008,
      "plate": 6009,
      "angari": 6010,
      "restés": 6011,
      "Chaque": 6012,
      "corde": 6013,
      "tantôt": 6014,
      "heureusement": 6015,
      "effets": 6016,
      "effray": 6017,
      "Parti": 6018,
      "habil": 6019,
      "throm": 6020,
      "rouges": 6021,
      "ferait": 6022,
      "alleman": 6023,
      "pleure": 6024,
      "Ang": 6025,
      "classement": 6026,
      "gentil": 6027,
      "organisé": 6028,
      "sentiments": 6029,
      "continué": 6030,
      "ordinaires": 6031,
      "réalisation": 6032,
      "oreille": 6033,
      "sauv": 6034,
      "espaces": 6035,
      "issaient": 6036,
      "plaisant": 6037,
      "métaux": 6038,
      "salaire": 6039,
      "minute": 6040,
      "Trois": 6041,
      "Seine": 6042,
      "essai": 6043,
      "croyais": 6044,
      "hyper": 6045,
      "religieux": 6046,
      "Royal": 6047,
      "Manhatt": 6048,
      "aimable": 6049,
      "ologue": 6050,
      "supprim": 6051,
      "rapproche": 6052,
      "terminé": 6053,
      "administra": 6054,
      "Nico": 6055,
      "souhaite": 6056,
      "annivers": 6057,
      "accompagn": 6058,
      "aignait": 6059,
      "Bruxelles": 6060,
      "conséquent": 6061,
      "possibilités": 6062,
      "Univers": 6063,
      "examens": 6064,
      "Skillet": 6065,
      "assistante": 6066,
      "Toussaint": 6067,
      "identité": 6068,
      "ingénieur": 6069,
      "événement": 6070,
      "fatigue": 6071,
      "amélior": 6072,
      "vêtements": 6073,
      "électronique": 6074,
      "statistiques": 6075,
      "ridicule": 6076,
      "IUT": 6077,
      "Metz": 6078,
      "épouser": 6079,
      "hypothèse": 6080,
      "caves": 6081,
      "hôpital": 6082,
      "province": 6083,
      "cathédrale": 6084,
      "équilibre": 6085,
      "Lyon": 6086,
      "comportement": 6087,
      "Scyth": 6088,
      "escalier": 6089,
      "Black": 6090,
      "Hanovre": 6091,
      "récits": 6092,
      "Riemann": 6093,
      "Manhattan": 6094,
      "Aur": 6095,
      "Ara": 6096,
      "Bre": 6097,
      "Cit": 6098,
      "Gal": 6099,
      "Hol": 6100,
      "Lé": 6101,
      "Lux": 6102,
      "Portu": 6103,
      "Str": 6104,
      "Tar": 6105,
      "UR": 6106,
      "Wor": 6107,
      "cable": 6108,
      "fâ": 6109,
      "fan": 6110,
      "frapp": 6111,
      "gène": 6112,
      "japon": 6113,
      "jardins": 6114,
      "mac": 6115,
      "mètre": 6116,
      "tum": 6117,
      "teurs": 6118,
      "zar": 6119,
      "èdent": 6120,
      "éclair": 6121,
      "ïque": 6122,
      "esses": 6123,
      "encad": 6124,
      "quais": 6125,
      "intes": 6126,
      "isti": 6127,
      "cemment": 6128,
      "tril": 6129,
      "chas": 6130,
      "chette": 6131,
      "park": 6132,
      "arai": 6133,
      "arché": 6134,
      "arith": 6135,
      "sic": 6136,
      "étendu": 6137,
      "diable": 6138,
      "décl": 6139,
      "dévoile": 6140,
      "attirer": 6141,
      "lion": 6142,
      "liez": 6143,
      "réelle": 6144,
      "réserv": 6145,
      "conne": 6146,
      "oiseaux": 6147,
      "astre": 6148,
      "ouvrit": 6149,
      "profond": 6150,
      "respi": 6151,
      "tume": 6152,
      "copi": 6153,
      "cesse": 6154,
      "ensité": 6155,
      "coucher": 6156,
      "peint": 6157,
      "soin": 6158,
      "soins": 6159,
      "discus": 6160,
      "guil": 6161,
      "manus": 6162,
      "métique": 6163,
      "métro": 6164,
      "blement": 6165,
      "forcer": 6166,
      "fiche": 6167,
      "contest": 6168,
      "cél": 6169,
      "courte": 6170,
      "icien": 6171,
      "apporte": 6172,
      "centim": 6173,
      "fondée": 6174,
      "boudin": 6175,
      "faisons": 6176,
      "accorde": 6177,
      "travaillait": 6178,
      "voudrait": 6179,
      "attenti": 6180,
      "visit": 6181,
      "intermédi": 6182,
      "Frank": 6183,
      "douce": 6184,
      "publics": 6185,
      "montage": 6186,
      "graci": 6187,
      "vingtaine": 6188,
      "basque": 6189,
      "soign": 6190,
      "ferai": 6191,
      "color": 6192,
      "judi": 6193,
      "présentation": 6194,
      "clip": 6195,
      "critères": 6196,
      "françaises": 6197,
      "longs": 6198,
      "utilisée": 6199,
      "office": 6200,
      "catal": 6201,
      "volume": 6202,
      "Arts": 6203,
      "épan": 6204,
      "Debienne": 6205,
      "occupent": 6206,
      "curi": 6207,
      "rettes": 6208,
      "retard": 6209,
      "valent": 6210,
      "simples": 6211,
      "battre": 6212,
      "nul": 6213,
      "constitue": 6214,
      "ologiques": 6215,
      "échanges": 6216,
      "opérations": 6217,
      "traversée": 6218,
      "camara": 6219,
      "royale": 6220,
      "représentations": 6221,
      "maladies": 6222,
      "évan": 6223,
      "réuss": 6224,
      "défend": 6225,
      "définir": 6226,
      "myst": 6227,
      "entends": 6228,
      "comprennent": 6229,
      "illons": 6230,
      "Libé": 6231,
      "accepté": 6232,
      "magasins": 6233,
      "payé": 6234,
      "constitution": 6235,
      "fédérale": 6236,
      "aménage": 6237,
      "web": 6238,
      "artistique": 6239,
      "cabinet": 6240,
      "supérieure": 6241,
      "Toulouse": 6242,
      "bénéfici": 6243,
      "dates": 6244,
      "établissements": 6245,
      "objectifs": 6246,
      "circulation": 6247,
      "hésit": 6248,
      "étrangères": 6249,
      "Buquet": 6250,
      "électriques": 6251,
      "honte": 6252,
      "Atlantique": 6253,
      "exprimer": 6254,
      "Poitiers": 6255,
      "bouteille": 6256,
      "cassis": 6257,
      "tribue": 6258,
      "Homme": 6259,
      "assemblée": 6260,
      "brillant": 6261,
      "parallèle": 6262,
      "catastrophe": 6263,
      "banlieue": 6264,
      "Claude": 6265,
      "Durant": 6266,
      "végét": 6267,
      "médicaments": 6268,
      "wick": 6269,
      "spiritu": 6270,
      "thrombol": 6271,
      "camarades": 6272,
      "):": 6273,
      "Bé": 6274,
      "Bal": 6275,
      "Brit": 6276,
      "Centre": 6277,
      "Donne": 6278,
      "Gren": 6279,
      "Isa": 6280,
      "Jus": 6281,
      "OE": 6282,
      "PE": 6283,
      "Ru": 6284,
      "San": 6285,
      "Sant": 6286,
      "Wh": 6287,
      "Zel": 6288,
      "aci": 6289,
      "bloc": 6290,
      "cède": 6291,
      "ding": 6292,
      "hâ": 6293,
      "iz": 6294,
      "mû": 6295,
      "mous": 6296,
      "nin": 6297,
      "sai": 6298,
      "tendre": 6299,
      "vil": 6300,
      "vale": 6301,
      "yse": 6302,
      "yme": 6303,
      "ype": 6304,
      "énig": 6305,
      "enn": 6306,
      "ende": 6307,
      "envis": 6308,
      "anime": 6309,
      "remis": 6310,
      "retenir": 6311,
      "recueil": 6312,
      "label": 6313,
      "esti": 6314,
      "teint": 6315,
      "trône": 6316,
      "secours": 6317,
      "chron": 6318,
      "simil": 6319,
      "dégu": 6320,
      "pourriez": 6321,
      "récent": 6322,
      "race": 6323,
      "rate": 6324,
      "racin": 6325,
      "rajou": 6326,
      "rables": 6327,
      "ramener": 6328,
      "agers": 6329,
      "surfaces": 6330,
      "proto": 6331,
      "proportion": 6332,
      "vote": 6333,
      "absent": 6334,
      "bio": 6335,
      "coûte": 6336,
      "exige": 6337,
      "termine": 6338,
      "montr": 6339,
      "potent": 6340,
      "nég": 6341,
      "crus": 6342,
      "disques": 6343,
      "légen": 6344,
      "immob": 6345,
      "uto": 6346,
      "uther": 6347,
      "tempête": 6348,
      "sév": 6349,
      "prépare": 6350,
      "phon": 6351,
      "courses": 6352,
      "centres": 6353,
      "fonde": 6354,
      "igh": 6355,
      "diffusée": 6356,
      "mini": 6357,
      "embourg": 6358,
      "raisin": 6359,
      "tours": 6360,
      "soupir": 6361,
      "itive": 6362,
      "heureuse": 6363,
      "ennemi": 6364,
      "tonnes": 6365,
      "habits": 6366,
      "régime": 6367,
      "berger": 6368,
      "producteur": 6369,
      "demandes": 6370,
      "coln": 6371,
      "affront": 6372,
      "présenta": 6373,
      "sortis": 6374,
      "utilisation": 6375,
      "dommages": 6376,
      "pensait": 6377,
      "constructions": 6378,
      "découvertes": 6379,
      "olique": 6380,
      "huitième": 6381,
      "parlez": 6382,
      "naz": 6383,
      "organise": 6384,
      "curieux": 6385,
      "ristian": 6386,
      "simpli": 6387,
      "genres": 6388,
      "oblige": 6389,
      "Alpes": 6390,
      "principales": 6391,
      "arrivaient": 6392,
      "remplis": 6393,
      "sauver": 6394,
      "oke": 6395,
      "Phil": 6396,
      "représentant": 6397,
      "crets": 6398,
      "fournir": 6399,
      "salu": 6400,
      "évê": 6401,
      "monstres": 6402,
      "souffre": 6403,
      "Sept": 6404,
      "adelou": 6405,
      "intéressantes": 6406,
      "record": 6407,
      "sensib": 6408,
      "difficiles": 6409,
      "dormir": 6410,
      "ajouta": 6411,
      "instruction": 6412,
      "traduit": 6413,
      "automobi": 6414,
      "propriétaire": 6415,
      "horreur": 6416,
      "ologues": 6417,
      "extraordinaires": 6418,
      "Niko": 6419,
      "employés": 6420,
      "augmente": 6421,
      "remplacé": 6422,
      "accompagne": 6423,
      "Minecraft": 6424,
      "Georges": 6425,
      "conséquence": 6426,
      "connaissaient": 6427,
      "polytechnique": 6428,
      "références": 6429,
      "européens": 6430,
      "dictionnaire": 6431,
      "réduit": 6432,
      "mystérieuse": 6433,
      "engager": 6434,
      "Lincoln": 6435,
      "éclairage": 6436,
      "pédagogique": 6437,
      "spectateur": 6438,
      "spectateurs": 6439,
      "quasiment": 6440,
      "comédiens": 6441,
      "relief": 6442,
      "humanité": 6443,
      "catégorie": 6444,
      "privilég": 6445,
      "automatiquement": 6446,
      "exercice": 6447,
      "adolescence": 6448,
      "Donc": 6449,
      "répliqua": 6450,
      "remarquable": 6451,
      "navires": 6452,
      "goutte": 6453,
      "intrigue": 6454,
      "résoudre": 6455,
      "argument": 6456,
      "librai": 6457,
      "Auguste": 6458,
      "révèle": 6459,
      "falloir": 6460,
      "formidable": 6461,
      "Luxembourg": 6462,
      "Isaac": 6463,
      "automobile": 6464,
      "Abra": 6465,
      "Bous": 6466,
      "Bat": 6467,
      "Bru": 6468,
      "Bélus": 6469,
      "CA": 6470,
      "Do": 6471,
      "Fi": 6472,
      "Ger": 6473,
      "HL": 6474,
      "Pologne": 6475,
      "Rec": 6476,
      "Rus": 6477,
      "Sour": 6478,
      "Stre": 6479,
      "Voi": 6480,
      "aune": 6481,
      "afric": 6482,
      "ctes": 6483,
      "dait": 6484,
      "frég": 6485,
      "gor": 6486,
      "gard": 6487,
      "gol": 6488,
      "mers": 6489,
      "mété": 6490,
      "sants": 6491,
      "savant": 6492,
      "uf": 6493,
      "uve": 6494,
      "vallée": 6495,
      "wa": 6496,
      "xes": 6497,
      "èque": 6498,
      "ôtre": 6499,
      "escla": 6500,
      "encre": 6501,
      "ailes": 6502,
      "queur": 6503,
      "quantique": 6504,
      "devez": 6505,
      "rel": 6506,
      "remet": 6507,
      "reprise": 6508,
      "reproche": 6509,
      "lages": 6510,
      "indu": 6511,
      "isit": 6512,
      "unis": 6513,
      "ceau": 6514,
      "tiré": 6515,
      "chat": 6516,
      "pars": 6517,
      "arde": 6518,
      "mentalité": 6519,
      "sio": 6520,
      "anth": 6521,
      "passions": 6522,
      "diot": 6523,
      "dées": 6524,
      "déser": 6525,
      "live": 6526,
      "convient": 6527,
      "congrès": 6528,
      "confront": 6529,
      "accue": 6530,
      "surpris": 6531,
      "prose": 6532,
      "abb": 6533,
      "cot": 6534,
      "coins": 6535,
      "extré": 6536,
      "mix": 6537,
      "auxquels": 6538,
      "mati": 6539,
      "pole": 6540,
      "journées": 6541,
      "couche": 6542,
      "niveaux": 6543,
      "cris": 6544,
      "crist": 6545,
      "croix": 6546,
      "disposition": 6547,
      "dits": 6548,
      "ranger": 6549,
      "rocade": 6550,
      "vasion": 6551,
      "contents": 6552,
      "tempor": 6553,
      "fauteuil": 6554,
      "stagi": 6555,
      "comptait": 6556,
      "ignon": 6557,
      "bouge": 6558,
      "misé": 6559,
      "vées": 6560,
      "resta": 6561,
      "égy": 6562,
      "égale": 6563,
      "garanti": 6564,
      "coraux": 6565,
      "alisée": 6566,
      "roix": 6567,
      "habité": 6568,
      "vaisseau": 6569,
      "féli": 6570,
      "croissance": 6571,
      "pects": 6572,
      "charmant": 6573,
      "ried": 6574,
      "normes": 6575,
      "rêves": 6576,
      "périodes": 6577,
      "débu": 6578,
      "cane": 6579,
      "clairement": 6580,
      "Anak": 6581,
      "utilisent": 6582,
      "domad": 6583,
      "tomba": 6584,
      "pensées": 6585,
      "décors": 6586,
      "apparaître": 6587,
      "permettait": 6588,
      "fonctionner": 6589,
      "tarot": 6590,
      "donnez": 6591,
      "bourse": 6592,
      "étroit": 6593,
      "écrivait": 6594,
      "milliers": 6595,
      "spécifiques": 6596,
      "médias": 6597,
      "faubourg": 6598,
      "promis": 6599,
      "générations": 6600,
      "précau": 6601,
      "oreilles": 6602,
      "Phor": 6603,
      "embê": 6604,
      "journaliste": 6605,
      "métal": 6606,
      "Guadelou": 6607,
      "légumes": 6608,
      "grammaire": 6609,
      "défense": 6610,
      "nécessité": 6611,
      "lingu": 6612,
      "aviation": 6613,
      "donnay": 6614,
      "senard": 6615,
      "marchait": 6616,
      "IIIe": 6617,
      "ajouter": 6618,
      "suivent": 6619,
      "invention": 6620,
      "subst": 6621,
      "obligée": 6622,
      "obligés": 6623,
      "unswick": 6624,
      "compétition": 6625,
      "commandes": 6626,
      "exploit": 6627,
      "entraîne": 6628,
      "Quelques": 6629,
      "investissement": 6630,
      "emploie": 6631,
      "promener": 6632,
      "Brunswick": 6633,
      "pauvres": 6634,
      "avouer": 6635,
      "assister": 6636,
      "signifie": 6637,
      "manifestations": 6638,
      "graphie": 6639,
      "appuy": 6640,
      "noeuds": 6641,
      "ONIC": 6642,
      "chute": 6643,
      "frag": 6644,
      "synthèse": 6645,
      "institutions": 6646,
      "gâteaux": 6647,
      "familial": 6648,
      "interroge": 6649,
      "Magnon": 6650,
      "Petit": 6651,
      "Beaune": 6652,
      "XIXe": 6653,
      "protéger": 6654,
      "Soussio": 6655,
      "brevet": 6656,
      "Musk": 6657,
      "guitare": 6658,
      "artificielle": 6659,
      "André": 6660,
      "échapper": 6661,
      "financement": 6662,
      "Roland": 6663,
      "galaxie": 6664,
      "intégrer": 6665,
      "systématique": 6666,
      "Saclay": 6667,
      "hebdomad": 6668,
      "Californie": 6669,
      "Aventures": 6670,
      "Nelly": 6671,
      "curiosité": 6672,
      "racines": 6673,
      "Nikola": 6674,
      "Abraham": 6675,
      "HLM": 6676,
      "Anakin": 6677,
      "Guadeloupe": 6678,
      "Ah": 6679,
      "Ami": 6680,
      "CH": 6681,
      "Cam": 6682,
      "CAP": 6683,
      "Elon": 6684,
      "Font": 6685,
      "Gabri": 6686,
      "Gangari": 6687,
      "Jar": 6688,
      "Là": 6689,
      "Laus": 6690,
      "Lance": 6691,
      "Mes": 6692,
      "Moi": 6693,
      "Mose": 6694,
      "Nar": 6695,
      "Océan": 6696,
      "PD": 6697,
      "Rom": 6698,
      "Rode": 6699,
      "Sci": 6700,
      "Télé": 6701,
      "ades": 6702,
      "ceur": 6703,
      "cors": 6704,
      "couvre": 6705,
      "dock": 6706,
      "hol": 6707,
      "ip": 6708,
      "jol": 6709,
      "ket": 6710,
      "mousse": 6711,
      "nus": 6712,
      "pleur": 6713,
      "tants": 6714,
      "von": 6715,
      "vap": 6716,
      "çal": 6717,
      "aies": 6718,
      "quins": 6719,
      "qualités": 6720,
      "lets": 6721,
      "leçon": 6722,
      "anes": 6723,
      "anche": 6724,
      "repro": 6725,
      "rection": 6726,
      "reviennent": 6727,
      "recru": 6728,
      "entra": 6729,
      "papiers": 6730,
      "invit": 6731,
      "incroy": 6732,
      "inutile": 6733,
      "ceaux": 6734,
      "tième": 6735,
      "prouver": 6736,
      "alé": 6737,
      "oile": 6738,
      "oivent": 6739,
      "jection": 6740,
      "compréhen": 6741,
      "dévou": 6742,
      "poursuit": 6743,
      "ride": 6744,
      "réellement": 6745,
      "réagir": 6746,
      "récemment": 6747,
      "confon": 6748,
      "assin": 6749,
      "sonne": 6750,
      "sonore": 6751,
      "aber": 6752,
      "abilités": 6753,
      "apé": 6754,
      "enses": 6755,
      "loint": 6756,
      "loto": 6757,
      "gui": 6758,
      "optique": 6759,
      "traverse": 6760,
      "roquefort": 6761,
      "mépris": 6762,
      "marx": 6763,
      "héro": 6764,
      "intè": 6765,
      "intend": 6766,
      "trouvaient": 6767,
      "pide": 6768,
      "cédé": 6769,
      "ada": 6770,
      "centrale": 6771,
      "miss": 6772,
      "sentent": 6773,
      "accor": 6774,
      "emmer": 6775,
      "trier": 6776,
      "voyag": 6777,
      "rencontres": 6778,
      "tournant": 6779,
      "souci": 6780,
      "Châ": 6781,
      "exemples": 6782,
      "jeta": 6783,
      "rond": 6784,
      "bassa": 6785,
      "sûre": 6786,
      "plaindre": 6787,
      "produc": 6788,
      "produite": 6789,
      "affec": 6790,
      "charcu": 6791,
      "chargée": 6792,
      "périodi": 6793,
      "cettes": 6794,
      "appelés": 6795,
      "passez": 6796,
      "sièges": 6797,
      "ieuses": 6798,
      "barde": 6799,
      "tenter": 6800,
      "époux": 6801,
      "assassin": 6802,
      "classi": 6803,
      "citoyen": 6804,
      "gaz": 6805,
      "constamment": 6806,
      "continua": 6807,
      "Charle": 6808,
      "Chardonnay": 6809,
      "promotion": 6810,
      "dragons": 6811,
      "Luke": 6812,
      "rempli": 6813,
      "morale": 6814,
      "ultéri": 6815,
      "arrêt": 6816,
      "servait": 6817,
      "aperce": 6818,
      "évolue": 6819,
      "considérer": 6820,
      "meilleures": 6821,
      "espoir": 6822,
      "annoncé": 6823,
      "compositions": 6824,
      "réussite": 6825,
      "matériaux": 6826,
      "soldats": 6827,
      "linge": 6828,
      "définition": 6829,
      "Berlin": 6830,
      "illés": 6831,
      "participé": 6832,
      "intérêts": 6833,
      "Royaume": 6834,
      "fabriquer": 6835,
      "enregistré": 6836,
      "honnête": 6837,
      "répète": 6838,
      "gonf": 6839,
      "locale": 6840,
      "originaire": 6841,
      "faveur": 6842,
      "perdue": 6843,
      "propriétés": 6844,
      "fédération": 6845,
      "écrits": 6846,
      "harmonie": 6847,
      "chevalier": 6848,
      "graves": 6849,
      "tombent": 6850,
      "respectivement": 6851,
      "augmentation": 6852,
      "cantons": 6853,
      "enregistrer": 6854,
      "oeuvres": 6855,
      "tâche": 6856,
      "prouve": 6857,
      "détruire": 6858,
      "anneaux": 6859,
      "calculs": 6860,
      "effectuer": 6861,
      "occupée": 6862,
      "attendu": 6863,
      "sommeil": 6864,
      "Austral": 6865,
      "poids": 6866,
      "technologies": 6867,
      "uréat": 6868,
      "obscur": 6869,
      "API": 6870,
      "logiciels": 6871,
      "ersey": 6872,
      "issue": 6873,
      "appareils": 6874,
      "devoirs": 6875,
      "trentaine": 6876,
      "puissants": 6877,
      "caractéristiques": 6878,
      "expositions": 6879,
      "rythme": 6880,
      "sympathie": 6881,
      "galerie": 6882,
      "lentement": 6883,
      "gratu": 6884,
      "adultes": 6885,
      "démocratie": 6886,
      "brusquement": 6887,
      "enveloppe": 6888,
      "Legends": 6889,
      "franchise": 6890,
      "prodig": 6891,
      "renommée": 6892,
      "installation": 6893,
      "AJA": 6894,
      "darité": 6895,
      "vignoble": 6896,
      "dérivés": 6897,
      "stratég": 6898,
      "Nicolas": 6899,
      "arithmétique": 6900,
      "Zelda": 6901,
      "Boussenard": 6902,
      "Source": 6903,
      "Gabriel": 6904,
      "Lausanne": 6905,
      "Moselle": 6906,
      "Australie": 6907,
      "Aidée": 6908,
      "Bo": 6909,
      "Bec": 6910,
      "Brive": 6911,
      "Cré": 6912,
      "Cir": 6913,
      "Croix": 6914,
      "Go": 6915,
      "Glori": 6916,
      "It": 6917,
      "Jon": 6918,
      "Jav": 6919,
      "Japon": 6920,
      "Lune": 6921,
      "Luther": 6922,
      "Nobel": 6923,
      "Pot": 6924,
      "Sam": 6925,
      "T1": 6926,
      "TOE": 6927,
      "atives": 6928,
      "beur": 6929,
      "câ": 6930,
      "fos": 6931,
      "gig": 6932,
      "gnées": 6933,
      "id": 6934,
      "lune": 6935,
      "los": 6936,
      "mè": 6937,
      "maux": 6938,
      "pè": 6939,
      "pût": 6940,
      "ule": 6941,
      "utive": 6942,
      "Âge": 6943,
      "Étoile": 6944,
      "èbre": 6945,
      "éc": 6946,
      "ître": 6947,
      "ong": 6948,
      "ouf": 6949,
      "quaient": 6950,
      "devenant": 6951,
      "lea": 6952,
      "anec": 6953,
      "remu": 6954,
      "incar": 6955,
      "inverse": 6956,
      "iso": 6957,
      "orité": 6958,
      "timi": 6959,
      "proie": 6960,
      "chasse": 6961,
      "chair": 6962,
      "chaise": 6963,
      "parent": 6964,
      "param": 6965,
      "alent": 6966,
      "altitude": 6967,
      "oign": 6968,
      "sier": 6969,
      "sienne": 6970,
      "ney": 6971,
      "étaires": 6972,
      "étoile": 6973,
      "comté": 6974,
      "déro": 6975,
      "dépasse": 6976,
      "pourvu": 6977,
      "rions": 6978,
      "riers": 6979,
      "républic": 6980,
      "conver": 6981,
      "ecutive": 6982,
      "ressemblait": 6983,
      "songer": 6984,
      "endor": 6985,
      "abrite": 6986,
      "amer": 6987,
      "ambu": 6988,
      "ambassa": 6989,
      "code": 6990,
      "coles": 6991,
      "chemins": 6992,
      "fins": 6993,
      "poit": 6994,
      "poteau": 6995,
      "coupa": 6996,
      "néer": 6997,
      "crits": 6998,
      "crainte": 6999,
      "critiques": 7000,
      "irs": 7001,
      "gués": 7002,
      "improvis": 7003,
      "géométrie": 7004,
      "mardi": 7005,
      "fixe": 7006,
      "certifi": 7007,
      "ségrégation": 7008,
      "tenez": 7009,
      "othé": 7010,
      "laissait": 7011,
      "centaines": 7012,
      "miner": 7013,
      "accum": 7014,
      "accus": 7015,
      "asseoir": 7016,
      "plaque": 7017,
      "placer": 7018,
      "raisonn": 7019,
      "voyagé": 7020,
      "renouv": 7021,
      "touristique": 7022,
      "souper": 7023,
      "devaient": 7024,
      "devraient": 7025,
      "Parmi": 7026,
      "jaune": 7027,
      "profiter": 7028,
      "sinis": 7029,
      "ferment": 7030,
      "voisine": 7031,
      "tare": 7032,
      "intéressante": 7033,
      "utilisant": 7034,
      "domest": 7035,
      "tome": 7036,
      "volumes": 7037,
      "idéal": 7038,
      "allant": 7039,
      "vincible": 7040,
      "toilette": 7041,
      "instin": 7042,
      "naturelles": 7043,
      "battu": 7044,
      "universités": 7045,
      "planètes": 7046,
      "spécialité": 7047,
      "quinzaine": 7048,
      "board": 7049,
      "indique": 7050,
      "illages": 7051,
      "arrivant": 7052,
      "semblée": 7053,
      "cesseur": 7054,
      "commencement": 7055,
      "opéra": 7056,
      "évolué": 7057,
      "attendait": 7058,
      "royal": 7059,
      "champs": 7060,
      "Pourquoi": 7061,
      "anglaise": 7062,
      "circonst": 7063,
      "matériau": 7064,
      "vivait": 7065,
      "chambres": 7066,
      "applications": 7067,
      "autorités": 7068,
      "directe": 7069,
      "préparé": 7070,
      "privé": 7071,
      "privée": 7072,
      "obligation": 7073,
      "constituer": 7074,
      "gym": 7075,
      "horri": 7076,
      "correspondant": 7077,
      "suppos": 7078,
      "génial": 7079,
      "entraîner": 7080,
      "accueillir": 7081,
      "véritablement": 7082,
      "investir": 7083,
      "bagarre": 7084,
      "limité": 7085,
      "physiciens": 7086,
      "scolaires": 7087,
      "augmenter": 7088,
      "stupé": 7089,
      "conservé": 7090,
      "glace": 7091,
      "examin": 7092,
      "cérémonie": 7093,
      "revanche": 7094,
      "décisions": 7095,
      "catholiques": 7096,
      "quotidienne": 7097,
      "équations": 7098,
      "poissons": 7099,
      "financière": 7100,
      "russe": 7101,
      "navire": 7102,
      "eussent": 7103,
      "institution": 7104,
      "observation": 7105,
      "téléphon": 7106,
      "traces": 7107,
      "regrette": 7108,
      "victoire": 7109,
      "punk": 7110,
      "gueule": 7111,
      "Société": 7112,
      "frontière": 7113,
      "étapes": 7114,
      "autonomie": 7115,
      "Haddock": 7116,
      "chaussée": 7117,
      "résistance": 7118,
      "goûter": 7119,
      "chômage": 7120,
      "traverser": 7121,
      "anniversaire": 7122,
      "World": 7123,
      "centimètres": 7124,
      "Street": 7125,
      "Voici": 7126,
      "frégate": 7127,
      "cristal": 7128,
      "Phorbas": 7129,
      "Charlemagne": 7130,
      "anecdo": 7131,
      "Bill": 7132,
      "Cou": 7133,
      "FR": 7134,
      "Gau": 7135,
      "Haut": 7136,
      "Ja": 7137,
      "Lau": 7138,
      "Mau": 7139,
      "Mach": 7140,
      "Mets": 7141,
      "Nature": 7142,
      "Ot": 7143,
      "Pin": 7144,
      "RP": 7145,
      "Roi": 7146,
      "Voy": 7147,
      "dot": 7148,
      "fans": 7149,
      "fro": 7150,
      "gour": 7151,
      "heurs": 7152,
      "mans": 7153,
      "nations": 7154,
      "noires": 7155,
      "nèbres": 7156,
      "otes": 7157,
      "pôle": 7158,
      "rum": 7159,
      "sat": 7160,
      "spont": 7161,
      "ume": 7162,
      "viti": 7163,
      "ws": 7164,
      "éla": 7165,
      "épuis": 7166,
      "émer": 7167,
      "écra": 7168,
      "édité": 7169,
      "endi": 7170,
      "enfon": 7171,
      "queue": 7172,
      "deviennent": 7173,
      "anais": 7174,
      "recette": 7175,
      "reconn": 7176,
      "revenue": 7177,
      "relev": 7178,
      "reconstruction": 7179,
      "remonte": 7180,
      "pavé": 7181,
      "illée": 7182,
      "lam": 7183,
      "isson": 7184,
      "auront": 7185,
      "auriez": 7186,
      "ory": 7187,
      "oracle": 7188,
      "arros": 7189,
      "simu": 7190,
      "lutte": 7191,
      "étariat": 7192,
      "dénom": 7193,
      "défil": 7194,
      "dépit": 7195,
      "liam": 7196,
      "conven": 7197,
      "ramas": 7198,
      "suprê": 7199,
      "eurent": 7200,
      "aspects": 7201,
      "acquérir": 7202,
      "agr": 7203,
      "ageux": 7204,
      "prot": 7205,
      "vocation": 7206,
      "absur": 7207,
      "abbé": 7208,
      "ames": 7209,
      "humeur": 7210,
      "mate": 7211,
      "auth": 7212,
      "sertion": 7213,
      "messieurs": 7214,
      "modé": 7215,
      "quelconque": 7216,
      "irait": 7217,
      "auss": 7218,
      "opposition": 7219,
      "méd": 7220,
      "League": 7221,
      "vache": 7222,
      "géographique": 7223,
      "marins": 7224,
      "fidé": 7225,
      "notions": 7226,
      "coupé": 7227,
      "enceinte": 7228,
      "entretien": 7229,
      "cerveau": 7230,
      "séance": 7231,
      "tenaient": 7232,
      "prédé": 7233,
      "lancé": 7234,
      "phère": 7235,
      "phara": 7236,
      "emple": 7237,
      "pire": 7238,
      "couronne": 7239,
      "bouger": 7240,
      "ministère": 7241,
      "match": 7242,
      "faï": 7243,
      "voyons": 7244,
      "voyaient": 7245,
      "tourna": 7246,
      "itifs": 7247,
      "Champ": 7248,
      "lisait": 7249,
      "interne": 7250,
      "Francs": 7251,
      "douter": 7252,
      "devin": 7253,
      "devais": 7254,
      "effic": 7255,
      "publiques": 7256,
      "gras": 7257,
      "magis": 7258,
      "clef": 7259,
      "littor": 7260,
      "mutu": 7261,
      "soie": 7262,
      "plaire": 7263,
      "Quoi": 7264,
      "suscepti": 7265,
      "élever": 7266,
      "rassemble": 7267,
      "tok": 7268,
      "portée": 7269,
      "utilisées": 7270,
      "pensa": 7271,
      "décen": 7272,
      "nationaux": 7273,
      "manières": 7274,
      "duré": 7275,
      "porc": 7276,
      "écrivain": 7277,
      "personnalité": 7278,
      "continuent": 7279,
      "enseignants": 7280,
      "vasculaire": 7281,
      "typique": 7282,
      "passagers": 7283,
      "habiter": 7284,
      "isseurs": 7285,
      "ulaire": 7286,
      "embras": 7287,
      "actualité": 7288,
      "champions": 7289,
      "rendent": 7290,
      "salaires": 7291,
      "Pic": 7292,
      "causer": 7293,
      "légèrement": 7294,
      "physiquement": 7295,
      "solli": 7296,
      "oublie": 7297,
      "invités": 7298,
      "religieuses": 7299,
      "thèmes": 7300,
      "marchand": 7301,
      "philosophe": 7302,
      "chapit": 7303,
      "chapelle": 7304,
      "départements": 7305,
      "communiquer": 7306,
      "quettes": 7307,
      "automne": 7308,
      "constituent": 7309,
      "diriger": 7310,
      "suppose": 7311,
      "gravitation": 7312,
      "entraînement": 7313,
      "briques": 7314,
      "tombait": 7315,
      "Améric": 7316,
      "respecter": 7317,
      "nécessairement": 7318,
      "Belfort": 7319,
      "baisse": 7320,
      "remplacer": 7321,
      "consulter": 7322,
      "initialement": 7323,
      "tâches": 7324,
      "satisfait": 7325,
      "revint": 7326,
      "circuit": 7327,
      "exceptionnel": 7328,
      "progresser": 7329,
      "attendez": 7330,
      "Aussi": 7331,
      "conçu": 7332,
      "affirme": 7333,
      "solide": 7334,
      "contenu": 7335,
      "répondait": 7336,
      "permanence": 7337,
      "consommation": 7338,
      "espérance": 7339,
      "Hoche": 7340,
      "statistique": 7341,
      "William": 7342,
      "victori": 7343,
      "observer": 7344,
      "salariés": 7345,
      "Jammes": 7346,
      "Premier": 7347,
      "chasseur": 7348,
      "épaules": 7349,
      "Racine": 7350,
      "rappeler": 7351,
      "cohérent": 7352,
      "explor": 7353,
      "montagnes": 7354,
      "amoureux": 7355,
      "soupçon": 7356,
      "blocs": 7357,
      "diabète": 7358,
      "Natsu": 7359,
      "Trib": 7360,
      "victime": 7361,
      "folie": 7362,
      "monnaie": 7363,
      "Anglais": 7364,
      "Portugal": 7365,
      "trilogie": 7366,
      "déclen": 7367,
      "intermédiaire": 7368,
      "légende": 7369,
      "librairie": 7370,
      "misérable": 7371,
      "Gangarides": 7372,
      "Roderick": 7373,
      "incroyable": 7374,
      "alentours": 7375,
      "certificat": 7376,
      "suprême": 7377,
      "Ai": 7378,
      "Beaux": 7379,
      "Dir": 7380,
      "Em": 7381,
      "Ecole": 7382,
      "Farra": 7383,
      "Halle": 7384,
      "IM": 7385,
      "Jos": 7386,
      "Ke": 7387,
      "Ken": 7388,
      "ME": 7389,
      "Not": 7390,
      "Ori": 7391,
      "Obi": 7392,
      "Rien": 7393,
      "Rhodes": 7394,
      "Sec": 7395,
      "Sus": 7396,
      "Solo": 7397,
      "Tra": 7398,
      "TRE": 7399,
      "Vé": 7400,
      "Wan": 7401,
      "aéro": 7402,
      "aér": 7403,
      "achev": 7404,
      "bê": 7405,
      "bous": 7406,
      "bad": 7407,
      "cend": 7408,
      "casse": 7409,
      "cts": 7410,
      "dge": 7411,
      "flu": 7412,
      "fri": 7413,
      "fée": 7414,
      "flor": 7415,
      "firent": 7416,
      "gai": 7417,
      "gant": 7418,
      "hale": 7419,
      "ling": 7420,
      "laine": 7421,
      "nois": 7422,
      "naient": 7423,
      "nante": 7424,
      "ning": 7425,
      "naître": 7426,
      "paille": 7427,
      "rur": 7428,
      "sque": 7429,
      "scru": 7430,
      "yn": 7431,
      "za": 7432,
      "zig": 7433,
      "çaient": 7434,
      "épouvant": 7435,
      "ïde": 7436,
      "oue": 7437,
      "antie": 7438,
      "reau": 7439,
      "retrait": 7440,
      "reprises": 7441,
      "entrai": 7442,
      "ilée": 7443,
      "invite": 7444,
      "insec": 7445,
      "incen": 7446,
      "insertion": 7447,
      "isté": 7448,
      "istiques": 7449,
      "esté": 7450,
      "ester": 7451,
      "orable": 7452,
      "tirage": 7453,
      "trim": 7454,
      "aven": 7455,
      "avion": 7456,
      "chal": 7457,
      "chang": 7458,
      "omme": 7459,
      "parlais": 7460,
      "parlement": 7461,
      "ary": 7462,
      "arrange": 7463,
      "algé": 7464,
      "sia": 7465,
      "simul": 7466,
      "pasteur": 7467,
      "uration": 7468,
      "étage": 7469,
      "comb": 7470,
      "dirait": 7471,
      "déç": 7472,
      "déte": 7473,
      "dédi": 7474,
      "dépu": 7475,
      "défi": 7476,
      "démontre": 7477,
      "dépenses": 7478,
      "attire": 7479,
      "poursuiv": 7480,
      "rice": 7481,
      "liés": 7482,
      "réaction": 7483,
      "récompens": 7484,
      "touches": 7485,
      "tremb": 7486,
      "vième": 7487,
      "agon": 7488,
      "agny": 7489,
      "peupl": 7490,
      "purement": 7491,
      "sures": 7492,
      "vocab": 7493,
      "endaires": 7494,
      "abat": 7495,
      "absor": 7496,
      "approfon": 7497,
      "biologie": 7498,
      "exc": 7499,
      "finie": 7500,
      "grants": 7501,
      "biens": 7502,
      "poètes": 7503,
      "moin": 7504,
      "modu": 7505,
      "couches": 7506,
      "néga": 7507,
      "locales": 7508,
      "criti": 7509,
      "soeur": 7510,
      "directeurs": 7511,
      "gut": 7512,
      "mangeait": 7513,
      "opti": 7514,
      "option": 7515,
      "oppose": 7516,
      "noter": 7517,
      "noble": 7518,
      "mettaient": 7519,
      "phas": 7520,
      "lèvres": 7521,
      "stop": 7522,
      "verres": 7523,
      "pizz": 7524,
      "complément": 7525,
      "admis": 7526,
      "mince": 7527,
      "IIe": 7528,
      "travaillais": 7529,
      "triche": 7530,
      "itudes": 7531,
      "anglo": 7532,
      "égo": 7533,
      "tourné": 7534,
      "touristes": 7535,
      "soulig": 7536,
      "soucis": 7537,
      "garantie": 7538,
      "Chagny": 7539,
      "pressing": 7540,
      "franc": 7541,
      "versé": 7542,
      "clar": 7543,
      "souven": 7544,
      "socialiste": 7545,
      "publier": 7546,
      "habile": 7547,
      "fili": 7548,
      "crimin": 7549,
      "fermes": 7550,
      "fermet": 7551,
      "blessure": 7552,
      "plaine": 7553,
      "larg": 7554,
      "charme": 7555,
      "intéressait": 7556,
      "claire": 7557,
      "topo": 7558,
      "toiles": 7559,
      "Anne": 7560,
      "formant": 7561,
      "neuvième": 7562,
      "Art": 7563,
      "transformer": 7564,
      "commença": 7565,
      "installe": 7566,
      "installa": 7567,
      "romaine": 7568,
      "hiér": 7569,
      "risques": 7570,
      "soirs": 7571,
      "planches": 7572,
      "onnés": 7573,
      "organismes": 7574,
      "spécial": 7575,
      "éléph": 7576,
      "dessiné": 7577,
      "continuité": 7578,
      "passants": 7579,
      "cyclo": 7580,
      "remporte": 7581,
      "remplir": 7582,
      "issante": 7583,
      "facil": 7584,
      "considérée": 7585,
      "conducteur": 7586,
      "représentants": 7587,
      "infir": 7588,
      "métap": 7589,
      "Long": 7590,
      "établit": 7591,
      "destru": 7592,
      "lasse": 7593,
      "poussée": 7594,
      "nécessaires": 7595,
      "réunis": 7596,
      "balles": 7597,
      "essence": 7598,
      "attaquer": 7599,
      "officiers": 7600,
      "massif": 7601,
      "mauvaises": 7602,
      "éditions": 7603,
      "bords": 7604,
      "signature": 7605,
      "passionné": 7606,
      "inventé": 7607,
      "paye": 7608,
      "vidéos": 7609,
      "déclaration": 7610,
      "patiente": 7611,
      "Quelque": 7612,
      "pâle": 7613,
      "tombée": 7614,
      "Empereur": 7615,
      "modèles": 7616,
      "bagu": 7617,
      "révolutionnaire": 7618,
      "Toutes": 7619,
      "bénévo": 7620,
      "conserve": 7621,
      "diplômes": 7622,
      "inspiré": 7623,
      "inspiration": 7624,
      "guerres": 7625,
      "violent": 7626,
      "inquiète": 7627,
      "contrôler": 7628,
      "Shannon": 7629,
      "International": 7630,
      "étonné": 7631,
      "procéder": 7632,
      "procédés": 7633,
      "assistant": 7634,
      "ingénieurs": 7635,
      "rayonnement": 7636,
      "Lotus": 7637,
      "poign": 7638,
      "acquisition": 7639,
      "précédent": 7640,
      "Madrid": 7641,
      "aérien": 7642,
      "ood": 7643,
      "dynas": 7644,
      "culteurs": 7645,
      "pédagogie": 7646,
      "Plusieurs": 7647,
      "bouteilles": 7648,
      "glob": 7649,
      "complexe": 7650,
      "complexes": 7651,
      "supplémentaires": 7652,
      "Première": 7653,
      "brevets": 7654,
      "étape": 7655,
      "interrompu": 7656,
      "obligatoirement": 7657,
      "calauréat": 7658,
      "tabac": 7659,
      "témoign": 7660,
      "dialogue": 7661,
      "réfugi": 7662,
      "récolte": 7663,
      "dynamique": 7664,
      "rédaction": 7665,
      "influencé": 7666,
      "Trésor": 7667,
      "Vingtième": 7668,
      "avocat": 7669,
      "enthousiasme": 7670,
      "performan": 7671,
      "pleurer": 7672,
      "mystère": 7673,
      "Records": 7674,
      "débute": 7675,
      "Naruto": 7676,
      "vapeur": 7677,
      "Gloria": 7678,
      "Potter": 7679,
      "Samuel": 7680,
      "Billboard": 7681,
      "spontan": 7682,
      "Farragut": 7683,
      "aérop": 7684,
      "')": 7685,
      "Aut": 7686,
      "Bil": 7687,
      "Cin": 7688,
      "Cat": 7689,
      "Ceux": 7690,
      "Cort": 7691,
      "Clar": 7692,
      "Den": 7693,
      "Dou": 7694,
      "Fre": 7695,
      "Géné": 7696,
      "Ham": 7697,
      "IA": 7698,
      "Imag": 7699,
      "Idiot": 7700,
      "Kö": 7701,
      "Kar": 7702,
      "Lui": 7703,
      "Maine": 7704,
      "Même": 7705,
      "Neu": 7706,
      "Noire": 7707,
      "PC": 7708,
      "Py": 7709,
      "Pé": 7710,
      "Pont": 7711,
      "Pré": 7712,
      "Ray": 7713,
      "Révolution": 7714,
      "Ville": 7715,
      "XIV": 7716,
      "aparte": 7717,
      "bit": 7718,
      "bav": 7719,
      "bain": 7720,
      "bapt": 7721,
      "hel": 7722,
      "ica": 7723,
      "lité": 7724,
      "laide": 7725,
      "niste": 7726,
      "oe": 7727,
      "oble": 7728,
      "orer": 7729,
      "piste": 7730,
      "rats": 7731,
      "sh": 7732,
      "saut": 7733,
      "stric": 7734,
      "taire": 7735,
      "tam": 7736,
      "vag": 7737,
      "ypes": 7738,
      "âges": 7739,
      "ètement": 7740,
      "èvre": 7741,
      "ètent": 7742,
      "ôts": 7743,
      "enchanteur": 7744,
      "aigne": 7745,
      "aigle": 7746,
      "rect": 7747,
      "remit": 7748,
      "recy": 7749,
      "revue": 7750,
      "revenus": 7751,
      "remonter": 7752,
      "recettes": 7753,
      "eufs": 7754,
      "eth": 7755,
      "ild": 7756,
      "ilier": 7757,
      "inten": 7758,
      "inaug": 7759,
      "ish": 7760,
      "quemment": 7761,
      "itant": 7762,
      "lescope": 7763,
      "trous": 7764,
      "trée": 7765,
      "trap": 7766,
      "traction": 7767,
      "description": 7768,
      "seig": 7769,
      "serez": 7770,
      "secrets": 7771,
      "parfum": 7772,
      "siens": 7773,
      "siez": 7774,
      "sifs": 7775,
      "antaine": 7776,
      "ura": 7777,
      "urban": 7778,
      "ouss": 7779,
      "états": 7780,
      "dict": 7781,
      "division": 7782,
      "dénon": 7783,
      "dépos": 7784,
      "dégag": 7785,
      "démontrer": 7786,
      "dégus": 7787,
      "démén": 7788,
      "rime": 7789,
      "lique": 7790,
      "liqui": 7791,
      "liées": 7792,
      "licen": 7793,
      "réforme": 7794,
      "trem": 7795,
      "ciga": 7796,
      "ouvrait": 7797,
      "eck": 7798,
      "peuplé": 7799,
      "surveil": 7800,
      "prolon": 7801,
      "protot": 7802,
      "abe": 7803,
      "abond": 7804,
      "tueux": 7805,
      "amè": 7806,
      "bile": 7807,
      "copain": 7808,
      "expressions": 7809,
      "ténèbres": 7810,
      "télescope": 7811,
      "grains": 7812,
      "usine": 7813,
      "perles": 7814,
      "persé": 7815,
      "humaines": 7816,
      "monar": 7817,
      "mondi": 7818,
      "montré": 7819,
      "monarchie": 7820,
      "majeu": 7821,
      "matières": 7822,
      "cuit": 7823,
      "cuve": 7824,
      "cuivre": 7825,
      "hemati": 7826,
      "message": 7827,
      "messages": 7828,
      "couloir": 7829,
      "sale": 7830,
      "instein": 7831,
      "low": 7832,
      "crite": 7833,
      "distri": 7834,
      "ophi": 7835,
      "opposé": 7836,
      "rod": 7837,
      "méchant": 7838,
      "marge": 7839,
      "file": 7840,
      "couple": 7841,
      "contour": 7842,
      "cercle": 7843,
      "séqu": 7844,
      "tennis": 7845,
      "péni": 7846,
      "cachait": 7847,
      "stade": 7848,
      "verte": 7849,
      "ottes": 7850,
      "couron": 7851,
      "courants": 7852,
      "laissa": 7853,
      "laissant": 7854,
      "fondé": 7855,
      "igno": 7856,
      "boutique": 7857,
      "bouquins": 7858,
      "carton": 7859,
      "partent": 7860,
      "mines": 7861,
      "Enjol": 7862,
      "impul": 7863,
      "play": 7864,
      "plage": 7865,
      "travailles": 7866,
      "raisins": 7867,
      "pouvons": 7868,
      "visibles": 7869,
      "joux": 7870,
      "joues": 7871,
      "jouait": 7872,
      "soumis": 7873,
      "soutenir": 7874,
      "gardes": 7875,
      "garant": 7876,
      "hommage": 7877,
      "intégra": 7878,
      "cornes": 7879,
      "toutefois": 7880,
      "consist": 7881,
      "deviner": 7882,
      "trafic": 7883,
      "fameuse": 7884,
      "sinc": 7885,
      "roule": 7886,
      "bassin": 7887,
      "fermer": 7888,
      "fermée": 7889,
      "sorcier": 7890,
      "lards": 7891,
      "travailleurs": 7892,
      "drogue": 7893,
      "contro": 7894,
      "charmin": 7895,
      "chargés": 7896,
      "prenaient": 7897,
      "priori": 7898,
      "intéressée": 7899,
      "ports": 7900,
      "quarantaine": 7901,
      "utilisés": 7902,
      "offres": 7903,
      "formée": 7904,
      "tomes": 7905,
      "ritage": 7906,
      "olives": 7907,
      "bulle": 7908,
      "particularité": 7909,
      "chimiques": 7910,
      "tares": 7911,
      "lieutenant": 7912,
      "valence": 7913,
      "régionales": 7914,
      "born": 7915,
      "blanches": 7916,
      "nuages": 7917,
      "nuclé": 7918,
      "commerces": 7919,
      "commerçant": 7920,
      "sensation": 7921,
      "demandez": 7922,
      "organisée": 7923,
      "spécifi": 7924,
      "spécifique": 7925,
      "Monde": 7926,
      "Moncharmin": 7927,
      "fondateurs": 7928,
      "boeufs": 7929,
      "enseigne": 7930,
      "passés": 7931,
      "passages": 7932,
      "illaume": 7933,
      "secondes": 7934,
      "Contr": 7935,
      "Confédération": 7936,
      "regards": 7937,
      "propositions": 7938,
      "choisissent": 7939,
      "populations": 7940,
      "énormes": 7941,
      "supermarchés": 7942,
      "actuel": 7943,
      "changements": 7944,
      "imaginer": 7945,
      "photograph": 7946,
      "laboratoires": 7947,
      "Guillaume": 7948,
      "salut": 7949,
      "essayez": 7950,
      "nécessite": 7951,
      "liné": 7952,
      "Descartes": 7953,
      "ake": 7954,
      "hôtels": 7955,
      "responsables": 7956,
      "programmation": 7957,
      "secondaires": 7958,
      "fréqu": 7959,
      "fréquemment": 7960,
      "collègue": 7961,
      "correspondance": 7962,
      "écran": 7963,
      "amén": 7964,
      "suffisant": 7965,
      "bridge": 7966,
      "pâte": 7967,
      "préféré": 7968,
      "cosmo": 7969,
      "admiration": 7970,
      "baccalauréat": 7971,
      "studios": 7972,
      "variétés": 7973,
      "secrétariat": 7974,
      "traditionnel": 7975,
      "diplom": 7976,
      "consultants": 7977,
      "nourrir": 7978,
      "peintre": 7979,
      "combats": 7980,
      "griff": 7981,
      "chaînes": 7982,
      "Jules": 7983,
      "conséquences": 7984,
      "copine": 7985,
      "enrich": 7986,
      "procédé": 7987,
      "effectue": 7988,
      "expédition": 7989,
      "progressivement": 7990,
      "consacré": 7991,
      "pattes": 7992,
      "patine": 7993,
      "introduit": 7994,
      "attraction": 7995,
      "tranquillement": 7996,
      "Assemblée": 7997,
      "Buc": 7998,
      "Votre": 7999,
      "délicat": 8000,
      "contenant": 8001,
      "historien": 8002,
      "bourgeoisie": 8003,
      "conservatoire": 8004,
      "aiguilles": 8005,
      "bombarde": 8006,
      "bosser": 8007,
      "illustre": 8008,
      "Link": 8009,
      "athan": 8010,
      "caractéristique": 8011,
      "convaincre": 8012,
      "excusez": 8013,
      "Hooke": 8014,
      "phrases": 8015,
      "implique": 8016,
      "hardcore": 8017,
      "disponibles": 8018,
      "tribun": 8019,
      "lourd": 8020,
      "savants": 8021,
      "interprétation": 8022,
      "singuli": 8023,
      "exercices": 8024,
      "virtu": 8025,
      "flûte": 8026,
      "fraîch": 8027,
      "astronomie": 8028,
      "accéder": 8029,
      "Larousse": 8030,
      "déplacement": 8031,
      "persuadé": 8032,
      "Palpatine": 8033,
      "fleuve": 8034,
      "modeste": 8035,
      "Cahorn": 8036,
      "indépendant": 8037,
      "indispens": 8038,
      "psychologie": 8039,
      "affiche": 8040,
      "Bayonne": 8041,
      "EDF": 8042,
      "soyez": 8043,
      "noyau": 8044,
      "discipline": 8045,
      "Bonaparte": 8046,
      "tristesse": 8047,
      "armées": 8048,
      "dîner": 8049,
      "deuil": 8050,
      "aménagement": 8051,
      "Grenoble": 8052,
      "privilégi": 8053,
      "Brujon": 8054,
      "Dook": 8055,
      "accueille": 8056,
      "abbaye": 8057,
      "précaution": 8058,
      "hebdomadaire": 8059,
      "intègre": 8060,
      "TOEIC": 8061,
      "câble": 8062,
      "poitrine": 8063,
      "accumu": 8064,
      "domestiques": 8065,
      "pharaon": 8066,
      "littoral": 8067,
      "scrupu": 8068,
      "vocabulaire": 8069,
      "clarté": 8070,
      "majeure": 8071,
      "Enjolras": 8072,
      "Ap": 8073,
      "Act": 8074,
      "Asie": 8075,
      "BB": 8076,
      "Boy": 8077,
      "CO": 8078,
      "Domin": 8079,
      "Enig": 8080,
      "Einstein": 8081,
      "Fré": 8082,
      "Gauss": 8083,
      "Hy": 8084,
      "Hist": 8085,
      "Jour": 8086,
      "Jersey": 8087,
      "Kie": 8088,
      "Lit": 8089,
      "Mac": 8090,
      "Oly": 8091,
      "Pers": 8092,
      "Sta": 8093,
      "TS": 8094,
      "Tok": 8095,
      "Time": 8096,
      "Tunis": 8097,
      "UG": 8098,
      "Vador": 8099,
      "Zur": 8100,
      "ace": 8101,
      "brique": 8102,
      "drom": 8103,
      "fusée": 8104,
      "gais": 8105,
      "hs": 8106,
      "hit": 8107,
      "if": 8108,
      "ks": 8109,
      "kow": 8110,
      "lite": 8111,
      "mme": 8112,
      "nap": 8113,
      "olle": 8114,
      "râ": 8115,
      "riti": 8116,
      "savaient": 8117,
      "saurait": 8118,
      "tac": 8119,
      "tilles": 8120,
      "taper": 8121,
      "ud": 8122,
      "var": 8123,
      "vée": 8124,
      "vation": 8125,
      "Épon": 8126,
      "âgé": 8127,
      "èges": 8128,
      "énon": 8129,
      "épreuves": 8130,
      "enberg": 8131,
      "oute": 8132,
      "ouette": 8133,
      "quêtes": 8134,
      "deuse": 8135,
      "devenait": 8136,
      "ançon": 8137,
      "recommand": 8138,
      "pater": 8139,
      "path": 8140,
      "intu": 8141,
      "invasion": 8142,
      "querel": 8143,
      "estes": 8144,
      "audi": 8145,
      "aisé": 8146,
      "tira": 8147,
      "tiend": 8148,
      "secou": 8149,
      "chants": 8150,
      "parvient": 8151,
      "parado": 8152,
      "melle": 8153,
      "arade": 8154,
      "oient": 8155,
      "quier": 8156,
      "new": 8157,
      "éth": 8158,
      "étac": 8159,
      "durer": 8160,
      "comique": 8161,
      "dépou": 8162,
      "atlas": 8163,
      "atmos": 8164,
      "pourcent": 8165,
      "lice": 8166,
      "réci": 8167,
      "résu": 8168,
      "répartition": 8169,
      "cile": 8170,
      "cifique": 8171,
      "concr": 8172,
      "confort": 8173,
      "actif": 8174,
      "vif": 8175,
      "viers": 8176,
      "procu": 8177,
      "tut": 8178,
      "approch": 8179,
      "expose": 8180,
      "finissent": 8181,
      "percer": 8182,
      "mademoiselle": 8183,
      "cuits": 8184,
      "cuire": 8185,
      "poète": 8186,
      "sers": 8187,
      "moto": 8188,
      "motifs": 8189,
      "mobile": 8190,
      "nétique": 8191,
      "négal": 8192,
      "locom": 8193,
      "craint": 8194,
      "soeurs": 8195,
      "irai": 8196,
      "guet": 8197,
      "mante": 8198,
      "métr": 8199,
      "possession": 8200,
      "Lee": 8201,
      "utiles": 8202,
      "marre": 8203,
      "fiée": 8204,
      "raine": 8205,
      "entretenir": 8206,
      "commiss": 8207,
      "tenus": 8208,
      "préa": 8209,
      "prétexte": 8210,
      "cherchez": 8211,
      "trouves": 8212,
      "lèrent": 8213,
      "céder": 8214,
      "cépage": 8215,
      "couru": 8216,
      "cente": 8217,
      "nera": 8218,
      "bouil": 8219,
      "partit": 8220,
      "diffus": 8221,
      "accab": 8222,
      "malheurs": 8223,
      "véni": 8224,
      "travaillaient": 8225,
      "faça": 8226,
      "attente": 8227,
      "pressé": 8228,
      "lisez": 8229,
      "intervenir": 8230,
      "internat": 8231,
      "internationales": 8232,
      "devra": 8233,
      "brave": 8234,
      "militaires": 8235,
      "chaleur": 8236,
      "publiés": 8237,
      "Parce": 8238,
      "ènement": 8239,
      "routes": 8240,
      "basé": 8241,
      "ferais": 8242,
      "plaign": 8243,
      "affli": 8244,
      "larges": 8245,
      "bébé": 8246,
      "présentent": 8247,
      "intéressés": 8248,
      "élection": 8249,
      "élector": 8250,
      "toit": 8251,
      "portant": 8252,
      "lyn": 8253,
      "lyonn": 8254,
      "lycées": 8255,
      "Auc": 8256,
      "airs": 8257,
      "particules": 8258,
      "barre": 8259,
      "transformation": 8260,
      "vini": 8261,
      "animations": 8262,
      "explication": 8263,
      "passées": 8264,
      "tisme": 8265,
      "marié": 8266,
      "plante": 8267,
      "nulle": 8268,
      "personnalités": 8269,
      "spécialités": 8270,
      "genoux": 8271,
      "Albert": 8272,
      "Allons": 8273,
      "indice": 8274,
      "promet": 8275,
      "électro": 8276,
      "échappe": 8277,
      "situations": 8278,
      "retourna": 8279,
      "Suez": 8280,
      "moral": 8281,
      "réalise": 8282,
      "réalisateur": 8283,
      "fantais": 8284,
      "plaisait": 8285,
      "facilité": 8286,
      "camarade": 8287,
      "royauté": 8288,
      "représenter": 8289,
      "rendait": 8290,
      "trouble": 8291,
      "iennes": 8292,
      "évacu": 8293,
      "rapidité": 8294,
      "composants": 8295,
      "gramme": 8296,
      "archives": 8297,
      "poussé": 8298,
      "demandant": 8299,
      "symb": 8300,
      "nett": 8301,
      "illants": 8302,
      "participation": 8303,
      "collections": 8304,
      "Maj": 8305,
      "religieuse": 8306,
      "appliquer": 8307,
      "autorisation": 8308,
      "poudre": 8309,
      "issements": 8310,
      "bibliothé": 8311,
      "invente": 8312,
      "adapter": 8313,
      "agréables": 8314,
      "regardez": 8315,
      "omelette": 8316,
      "Grâce": 8317,
      "fréquence": 8318,
      "intérieure": 8319,
      "singles": 8320,
      "déclaré": 8321,
      "rapproch": 8322,
      "froide": 8323,
      "harpon": 8324,
      "Bourbon": 8325,
      "discute": 8326,
      "restaurants": 8327,
      "jambe": 8328,
      "préférence": 8329,
      "belge": 8330,
      "distinguer": 8331,
      "philosophique": 8332,
      "baiser": 8333,
      "habitué": 8334,
      "Roux": 8335,
      "binaire": 8336,
      "dimanches": 8337,
      "promenade": 8338,
      "inspire": 8339,
      "griots": 8340,
      "initiative": 8341,
      "glaci": 8342,
      "fenêtres": 8343,
      "contrôles": 8344,
      "favoriser": 8345,
      "démonstrations": 8346,
      "merveilleuse": 8347,
      "miroir": 8348,
      "modernes": 8349,
      "agricole": 8350,
      "occupait": 8351,
      "pommes": 8352,
      "progression": 8353,
      "européenne": 8354,
      "possèdent": 8355,
      "patois": 8356,
      "cadeau": 8357,
      "attraper": 8358,
      "solidarité": 8359,
      "intitulée": 8360,
      "boîtes": 8361,
      "engagé": 8362,
      "cousin": 8363,
      "gosses": 8364,
      "profondeurs": 8365,
      "lactique": 8366,
      "tragédies": 8367,
      "puissances": 8368,
      "consommat": 8369,
      "éloigné": 8370,
      "fournit": 8371,
      "Canada": 8372,
      "gêne": 8373,
      "meubles": 8374,
      "contribué": 8375,
      "Plumet": 8376,
      "conseillers": 8377,
      "magazines": 8378,
      "Caen": 8379,
      "Dragons": 8380,
      "scolarité": 8381,
      "excell": 8382,
      "candidats": 8383,
      "infiniment": 8384,
      "YouTu": 8385,
      "Awards": 8386,
      "flix": 8387,
      "accélé": 8388,
      "aborder": 8389,
      "chasseurs": 8390,
      "corriger": 8391,
      "épaule": 8392,
      "pollution": 8393,
      "hectares": 8394,
      "séminaire": 8395,
      "triomph": 8396,
      "significa": 8397,
      "accessible": 8398,
      "Netflix": 8399,
      "fausse": 8400,
      "schéma": 8401,
      "financer": 8402,
      "interprète": 8403,
      "fidèle": 8404,
      "renseignements": 8405,
      "provençal": 8406,
      "Scythes": 8407,
      "réservée": 8408,
      "Britanni": 8409,
      "valet": 8410,
      "météo": 8411,
      "stagiaires": 8412,
      "linguistique": 8413,
      "Fontaine": 8414,
      "Télécom": 8415,
      "productivité": 8416,
      "Tribune": 8417,
      "simultan": 8418,
      "bombardements": 8419,
      "Enigma": 8420,
      "Éponine": 8421,
      ");": 8422,
      "AC": 8423,
      "Air": 8424,
      "App": 8425,
      "Bri": 8426,
      "Cy": 8427,
      "Cité": 8428,
      "Cig": 8429,
      "Cabri": 8430,
      "Dan": 8431,
      "Dun": 8432,
      "Fais": 8433,
      "Fort": 8434,
      "Ga": 8435,
      "Gon": 8436,
      "Gri": 8437,
      "Grant": 8438,
      "Han": 8439,
      "Lille": 8440,
      "LLE": 8441,
      "Mou": 8442,
      "Mort": 8443,
      "Poly": 8444,
      "Ros": 8445,
      "Rap": 8446,
      "Rock": 8447,
      "Sco": 8448,
      "Sicile": 8449,
      "Tant": 8450,
      "Tam": 8451,
      "Thés": 8452,
      "Temple": 8453,
      "VIII": 8454,
      "ati": 8455,
      "bs": 8456,
      "bap": 8457,
      "boy": 8458,
      "blée": 8459,
      "cétac": 8460,
      "dences": 8461,
      "ed": 8462,
      "fal": 8463,
      "fout": 8464,
      "gain": 8465,
      "hal": 8466,
      "ient": 8467,
      "ics": 8468,
      "iras": 8469,
      "jas": 8470,
      "jac": 8471,
      "joint": 8472,
      "nan": 8473,
      "nas": 8474,
      "pait": 8475,
      "poir": 8476,
      "pist": 8477,
      "sch": 8478,
      "spl": 8479,
      "siste": 8480,
      "ttes": 8481,
      "tint": 8482,
      "vence": 8483,
      "you": 8484,
      "èse": 8485,
      "équit": 8486,
      "êle": 8487,
      "êts": 8488,
      "encl": 8489,
      "enlève": 8490,
      "aidé": 8491,
      "ouche": 8492,
      "repartir": 8493,
      "remment": 8494,
      "recommencer": 8495,
      "relevé": 8496,
      "enter": 8497,
      "entrait": 8498,
      "entrées": 8499,
      "erne": 8500,
      "illu": 8501,
      "lab": 8502,
      "laver": 8503,
      "inci": 8504,
      "incon": 8505,
      "insur": 8506,
      "incul": 8507,
      "incapable": 8508,
      "isses": 8509,
      "issus": 8510,
      "una": 8511,
      "estu": 8512,
      "aissance": 8513,
      "orch": 8514,
      "orgue": 8515,
      "ties": 8516,
      "prune": 8517,
      "prenne": 8518,
      "prier": 8519,
      "avo": 8520,
      "avre": 8521,
      "chy": 8522,
      "chaire": 8523,
      "chaient": 8524,
      "parles": 8525,
      "parliez": 8526,
      "ars": 8527,
      "arron": 8528,
      "alg": 8529,
      "antéri": 8530,
      "urée": 8531,
      "lugu": 8532,
      "étin": 8533,
      "étrer": 8534,
      "onté": 8535,
      "comparais": 8536,
      "eli": 8537,
      "dirai": 8538,
      "dimin": 8539,
      "déri": 8540,
      "détres": 8541,
      "débou": 8542,
      "déchi": 8543,
      "déménage": 8544,
      "atom": 8545,
      "rières": 8546,
      "liaison": 8547,
      "licorne": 8548,
      "réveille": 8549,
      "répons": 8550,
      "république": 8551,
      "répert": 8552,
      "donjon": 8553,
      "convention": 8554,
      "oso": 8555,
      "oise": 8556,
      "agend": 8557,
      "ecture": 8558,
      "survie": 8559,
      "volle": 8560,
      "voleurs": 8561,
      "sonor": 8562,
      "songeait": 8563,
      "abî": 8564,
      "abon": 8565,
      "abatt": 8566,
      "coq": 8567,
      "coû": 8568,
      "excep": 8569,
      "exact": 8570,
      "exprime": 8571,
      "expert": 8572,
      "mienne": 8573,
      "auxquelles": 8574,
      "males": 8575,
      "enstein": 8576,
      "culer": 8577,
      "serai": 8578,
      "servent": 8579,
      "serpent": 8580,
      "messe": 8581,
      "coule": 8582,
      "couteau": 8583,
      "sache": 8584,
      "inscrire": 8585,
      "craindre": 8586,
      "quoiqu": 8587,
      "disper": 8588,
      "positif": 8589,
      "sépare": 8590,
      "héritage": 8591,
      "pées": 8592,
      "cherchait": 8593,
      "lèvent": 8594,
      "rentrent": 8595,
      "célé": 8596,
      "course": 8597,
      "iciens": 8598,
      "oct": 8599,
      "laissée": 8600,
      "adal": 8601,
      "ainement": 8602,
      "faisiez": 8603,
      "malle": 8604,
      "impéri": 8605,
      "impôts": 8606,
      "façons": 8607,
      "restres": 8608,
      "voulant": 8609,
      "visant": 8610,
      "visité": 8611,
      "renforce": 8612,
      "soutenu": 8613,
      "olit": 8614,
      "avantages": 8615,
      "itivement": 8616,
      "listes": 8617,
      "aînée": 8618,
      "interaction": 8619,
      "douceur": 8620,
      "brune": 8621,
      "effar": 8622,
      "Park": 8623,
      "jadis": 8624,
      "traditions": 8625,
      "créateur": 8626,
      "habiles": 8627,
      "magicien": 8628,
      "régi": 8629,
      "Ceci": 8630,
      "différemment": 8631,
      "grandi": 8632,
      "Maritime": 8633,
      "ferma": 8634,
      "casino": 8635,
      "théâ": 8636,
      "affreux": 8637,
      "rapporte": 8638,
      "rapporter": 8639,
      "jugé": 8640,
      "beautés": 8641,
      "charger": 8642,
      "tache": 8643,
      "intéressent": 8644,
      "élections": 8645,
      "clous": 8646,
      "Anton": 8647,
      "portent": 8648,
      "grossi": 8649,
      "sortant": 8650,
      "tombeau": 8651,
      "construite": 8652,
      "construits": 8653,
      "constructeur": 8654,
      "Autre": 8655,
      "Aujourd": 8656,
      "Autriche": 8657,
      "fortes": 8658,
      "pareille": 8659,
      "grandeur": 8660,
      "barbe": 8661,
      "chiens": 8662,
      "chimique": 8663,
      "chances": 8664,
      "chantier": 8665,
      "rupture": 8666,
      "ruption": 8667,
      "assiste": 8668,
      "hip": 8669,
      "régional": 8670,
      "rechercher": 8671,
      "universitaires": 8672,
      "mariés": 8673,
      "débuts": 8674,
      "étro": 8675,
      "nuis": 8676,
      "hauts": 8677,
      "organisations": 8678,
      "cks": 8679,
      "Alain": 8680,
      "média": 8681,
      "continuait": 8682,
      "vastes": 8683,
      "passaient": 8684,
      "échapp": 8685,
      "semblaient": 8686,
      "nuits": 8687,
      "isseur": 8688,
      "arrêta": 8689,
      "scènes": 8690,
      "populaires": 8691,
      "superfici": 8692,
      "traversé": 8693,
      "Valence": 8694,
      "déshab": 8695,
      "crochets": 8696,
      "supporter": 8697,
      "quantités": 8698,
      "conseille": 8699,
      "Guy": 8700,
      "rends": 8701,
      "reçut": 8702,
      "légère": 8703,
      "confie": 8704,
      "monstru": 8705,
      "matériels": 8706,
      "nettes": 8707,
      "registre": 8708,
      "officier": 8709,
      "Berke": 8710,
      "invité": 8711,
      "Mala": 8712,
      "religions": 8713,
      "mascul": 8714,
      "majeur": 8715,
      "donnaient": 8716,
      "impressionnant": 8717,
      "précises": 8718,
      "vaincu": 8719,
      "vainqueur": 8720,
      "recense": 8721,
      "Liban": 8722,
      "sensibles": 8723,
      "hodo": 8724,
      "éduca": 8725,
      "tranche": 8726,
      "remarqué": 8727,
      "imposer": 8728,
      "spectacles": 8729,
      "Caraï": 8730,
      "adapté": 8731,
      "ault": 8732,
      "départemental": 8733,
      "destiné": 8734,
      "révolutions": 8735,
      "raconté": 8736,
      "écrou": 8737,
      "exploitation": 8738,
      "amphit": 8739,
      "jambon": 8740,
      "artisan": 8741,
      "costume": 8742,
      "accueilli": 8743,
      "partisans": 8744,
      "bagar": 8745,
      "respecte": 8746,
      "habituellement": 8747,
      "Babet": 8748,
      "vertus": 8749,
      "silhou": 8750,
      "anium": 8751,
      "anneau": 8752,
      "fixé": 8753,
      "Malbrou": 8754,
      "caractères": 8755,
      "circuits": 8756,
      "agriculteurs": 8757,
      "manifestation": 8758,
      "poivre": 8759,
      "financier": 8760,
      "obscurité": 8761,
      "prononcé": 8762,
      "Radio": 8763,
      "XVI": 8764,
      "résident": 8765,
      "assiette": 8766,
      "navig": 8767,
      "errané": 8768,
      "syndi": 8769,
      "bombe": 8770,
      "boss": 8771,
      "améliorer": 8772,
      "conclusion": 8773,
      "élevée": 8774,
      "pilote": 8775,
      "Certaines": 8776,
      "René": 8777,
      "Wilhel": 8778,
      "vendues": 8779,
      "Néanmoins": 8780,
      "ignorance": 8781,
      "supplémentaire": 8782,
      "fassent": 8783,
      "désespoir": 8784,
      "excellent": 8785,
      "candidat": 8786,
      "ANPE": 8787,
      "Venise": 8788,
      "adulte": 8789,
      "immigration": 8790,
      "achevé": 8791,
      "accentu": 8792,
      "grenier": 8793,
      "burg": 8794,
      "souveraineté": 8795,
      "contemporain": 8796,
      "civile": 8797,
      "demeura": 8798,
      "Cahors": 8799,
      "Eugène": 8800,
      "triomphe": 8801,
      "Ern": 8802,
      "lutter": 8803,
      "féminin": 8804,
      "rêverie": 8805,
      "National": 8806,
      "fabrique": 8807,
      "blanchis": 8808,
      "encourage": 8809,
      "microscope": 8810,
      "tendresse": 8811,
      "étonnant": 8812,
      "concepts": 8813,
      "disparition": 8814,
      "correctement": 8815,
      "Music": 8816,
      "flèche": 8817,
      "divor": 8818,
      "méditerrané": 8819,
      "habilitation": 8820,
      "allemande": 8821,
      "Université": 8822,
      "amélioration": 8823,
      "peintures": 8824,
      "guilde": 8825,
      "manuscrit": 8826,
      "céleste": 8827,
      "judici": 8828,
      "ennui": 8829,
      "protocole": 8830,
      "évêque": 8831,
      "Cambridge": 8832,
      "Château": 8833,
      "Becquerel": 8834,
      "gigantes": 8835,
      "fidélité": 8836,
      "insectes": 8837,
      "avenue": 8838,
      "cyclopé": 8839,
      "métaphy": 8840,
      "Imagine": 8841,
      "König": 8842,
      "oeil": 8843,
      "licenci": 8844,
      "indispensable": 8845,
      "Dookie": 8846,
      "Frédé": 8847,
      "drome": 8848,
      "kowski": 8849,
      "lyonnaise": 8850,
      "bibliothécaire": 8851,
      "YouTube": 8852,
      "Cabriolle": 8853,
      "Thésée": 8854,
      "baptis": 8855,
      "diminue": 8856,
      "réponses": 8857,
      "agenda": 8858,
      "volley": 8859,
      "Berkeley": 8860,
      "amphithé": 8861,
      "\".": 8862,
      "00": 8863,
      "AF": 8864,
      "Az": 8865,
      "Bapt": 8866,
      "CL": 8867,
      "Cro": 8868,
      "DC": 8869,
      "Dr": 8870,
      "Der": 8871,
      "Edu": 8872,
      "Fon": 8873,
      "Jardin": 8874,
      "Los": 8875,
      "Mc": 8876,
      "N8": 8877,
      "Nintend": 8878,
      "Peut": 8879,
      "SM": 8880,
      "Tw": 8881,
      "Tales": 8882,
      "Tao": 8883,
      "Wal": 8884,
      "axe": 8885,
      "axi": 8886,
      "bl": 8887,
      "bains": 8888,
      "clon": 8889,
      "cture": 8890,
      "dain": 8891,
      "eautés": 8892,
      "fes": 8893,
      "feux": 8894,
      "flat": 8895,
      "hes": 8896,
      "haine": 8897,
      "joy": 8898,
      "kin": 8899,
      "py": 8900,
      "rèrent": 8901,
      "rateur": 8902,
      "ufs": 8903,
      "vard": 8904,
      "way": 8905,
      "yrac": 8906,
      "zaines": 8907,
      "âgée": 8908,
      "èvres": 8909,
      "éré": 8910,
      "épreuve": 8911,
      "émeu": 8912,
      "émissions": 8913,
      "eng": 8914,
      "aile": 8915,
      "ouff": 8916,
      "dex": 8917,
      "dette": 8918,
      "lein": 8919,
      "repé": 8920,
      "reconnais": 8921,
      "report": 8922,
      "reuses": 8923,
      "reconnaît": 8924,
      "retirer": 8925,
      "reproduire": 8926,
      "revues": 8927,
      "erait": 8928,
      "ety": 8929,
      "pause": 8930,
      "pagnes": 8931,
      "indem": 8932,
      "inexpli": 8933,
      "incident": 8934,
      "ung": 8935,
      "audit": 8936,
      "orlé": 8937,
      "tiver": 8938,
      "tram": 8939,
      "trah": 8940,
      "omni": 8941,
      "ombres": 8942,
      "parla": 8943,
      "parfaite": 8944,
      "mec": 8945,
      "arrest": 8946,
      "uranium": 8947,
      "luxe": 8948,
      "ject": 8949,
      "dut": 8950,
      "dues": 8951,
      "duquel": 8952,
      "duction": 8953,
      "comble": 8954,
      "commode": 8955,
      "diens": 8956,
      "dign": 8957,
      "décro": 8958,
      "désign": 8959,
      "désigner": 8960,
      "riz": 8961,
      "rigueur": 8962,
      "libr": 8963,
      "réchauff": 8964,
      "osent": 8965,
      "osait": 8966,
      "asbourg": 8967,
      "acous": 8968,
      "acité": 8969,
      "actifs": 8970,
      "accompli": 8971,
      "mpi": 8972,
      "vive": 8973,
      "vivement": 8974,
      "agée": 8975,
      "agran": 8976,
      "agram": 8977,
      "ressemblent": 8978,
      "volon": 8979,
      "abou": 8980,
      "turer": 8981,
      "apprit": 8982,
      "bier": 8983,
      "exil": 8984,
      "executive": 8985,
      "mile": 8986,
      "teries": 8987,
      "illement": 8988,
      "permit": 8989,
      "humour": 8990,
      "mondial": 8991,
      "monseigneur": 8992,
      "geant": 8993,
      "seras": 8994,
      "serbe": 8995,
      "nière": 8996,
      "inspec": 8997,
      "loger": 8998,
      "craign": 8999,
      "peaux": 9000,
      "solit": 9001,
      "moires": 9002,
      "irais": 9003,
      "Leia": 9004,
      "forêts": 9005,
      "utilité": 9006,
      "gén": 9007,
      "tress": 9008,
      "marquer": 9009,
      "raille": 9010,
      "tempéra": 9011,
      "tensions": 9012,
      "péril": 9013,
      "prévoir": 9014,
      "lancée": 9015,
      "cachée": 9016,
      "phone": 9017,
      "nommés": 9018,
      "trouvais": 9019,
      "empre": 9020,
      "empla": 9021,
      "emport": 9022,
      "verts": 9023,
      "verrez": 9024,
      "pio": 9025,
      "icilement": 9026,
      "laise": 9027,
      "laissent": 9028,
      "comptes": 9029,
      "compense": 9030,
      "adou": 9031,
      "admettre": 9032,
      "centr": 9033,
      "boucle": 9034,
      "bouquet": 9035,
      "difficilement": 9036,
      "sentit": 9037,
      "maths": 9038,
      "ivoire": 9039,
      "arrivais": 9040,
      "placé": 9041,
      "travaillant": 9042,
      "fax": 9043,
      "égard": 9044,
      "certitude": 9045,
      "visions": 9046,
      "renvoy": 9047,
      "tournait": 9048,
      "itimes": 9049,
      "corpor": 9050,
      "franchir": 9051,
      "jeté": 9052,
      "doulou": 9053,
      "seules": 9054,
      "brun": 9055,
      "bronze": 9056,
      "brouss": 9057,
      "nouveautés": 9058,
      "millé": 9059,
      "publicité": 9060,
      "erreurs": 9061,
      "probable": 9062,
      "magiques": 9063,
      "musul": 9064,
      "roug": 9065,
      "basques": 9066,
      "Maroc": 9067,
      "plomb": 9068,
      "thématique": 9069,
      "côtes": 9070,
      "logis": 9071,
      "colos": 9072,
      "Quels": 9073,
      "iliser": 9074,
      "premièrement": 9075,
      "contrainte": 9076,
      "charte": 9077,
      "périphé": 9078,
      "frisson": 9079,
      "taxe": 9080,
      "canon": 9081,
      "intéressants": 9082,
      "calend": 9083,
      "clés": 9084,
      "cetera": 9085,
      "rassur": 9086,
      "Anth": 9087,
      "neutre": 9088,
      "achat": 9089,
      "achats": 9090,
      "appartenait": 9091,
      "appartements": 9092,
      "Invincible": 9093,
      "sorties": 9094,
      "fonctionnaires": 9095,
      "sommet": 9096,
      "épée": 9097,
      "passera": 9098,
      "animée": 9099,
      "occupa": 9100,
      "menait": 9101,
      "terreur": 9102,
      "rosé": 9103,
      "universitaire": 9104,
      "planche": 9105,
      "regardes": 9106,
      "arrivez": 9107,
      "Organ": 9108,
      "déten": 9109,
      "moteurs": 9110,
      "fondateur": 9111,
      "Charente": 9112,
      "indiens": 9113,
      "quare": 9114,
      "drame": 9115,
      "situées": 9116,
      "retourné": 9117,
      "cesseurs": 9118,
      "compagnon": 9119,
      "superst": 9120,
      "relativité": 9121,
      "évolutions": 9122,
      "conduction": 9123,
      "publications": 9124,
      "annoncée": 9125,
      "supporte": 9126,
      "professionnelles": 9127,
      "photographe": 9128,
      "Guadal": 9129,
      "reçoivent": 9130,
      "causes": 9131,
      "américaines": 9132,
      "réussit": 9133,
      "essayant": 9134,
      "totale": 9135,
      "totalité": 9136,
      "souffrir": 9137,
      "réunit": 9138,
      "radios": 9139,
      "essaient": 9140,
      "absolue": 9141,
      "mythe": 9142,
      "officiels": 9143,
      "ministres": 9144,
      "édifice": 9145,
      "landaise": 9146,
      "fabric": 9147,
      "loyers": 9148,
      "igneurs": 9149,
      "inventions": 9150,
      "subitement": 9151,
      "traductions": 9152,
      "chapite": 9153,
      "chapeaux": 9154,
      "programmes": 9155,
      "destinat": 9156,
      "expan": 9157,
      "dialect": 9158,
      "gypa": 9159,
      "horaires": 9160,
      "dirigée": 9161,
      "réussir": 9162,
      "harmon": 9163,
      "aperçut": 9164,
      "administrations": 9165,
      "rencontrent": 9166,
      "avançait": 9167,
      "imaginaire": 9168,
      "bague": 9169,
      "narval": 9170,
      "ponts": 9171,
      "électrons": 9172,
      "sports": 9173,
      "habitudes": 9174,
      "Rouen": 9175,
      "secrète": 9176,
      "accompagner": 9177,
      "Minkowski": 9178,
      "scoutisme": 9179,
      "combattre": 9180,
      "Georg": 9181,
      "traitements": 9182,
      "Juli": 9183,
      "Union": 9184,
      "faibles": 9185,
      "brûler": 9186,
      "paiement": 9187,
      "colonnes": 9188,
      "feyrac": 9189,
      "ingénierie": 9190,
      "agriculture": 9191,
      "Provence": 9192,
      "Love": 9193,
      "européen": 9194,
      "consacre": 9195,
      "dictionnaires": 9196,
      "scénar": 9197,
      "conçoit": 9198,
      "graphique": 9199,
      "documentation": 9200,
      "folle": 9201,
      "abandonner": 9202,
      "Bernhard": 9203,
      "XVIIIe": 9204,
      "XVIIe": 9205,
      "km2": 9206,
      "résidence": 9207,
      "fromages": 9208,
      "cousine": 9209,
      "batteur": 9210,
      "issues": 9211,
      "ramène": 9212,
      "évoquer": 9213,
      "aiguille": 9214,
      "déterminé": 9215,
      "déterminer": 9216,
      "puissante": 9217,
      "interroger": 9218,
      "élevés": 9219,
      "élevage": 9220,
      "convaincu": 9221,
      "réserve": 9222,
      "hausse": 9223,
      "cassette": 9224,
      "domination": 9225,
      "médecins": 9226,
      "lourds": 9227,
      "funeste": 9228,
      "spécialisés": 9229,
      "Society": 9230,
      "James": 9231,
      "répétition": 9232,
      "Boules": 9233,
      "Centur": 9234,
      "immigrants": 9235,
      "municipale": 9236,
      "Auxerre": 9237,
      "Blanche": 9238,
      "titulaire": 9239,
      "retiré": 9240,
      "infinis": 9241,
      "infinité": 9242,
      "grenou": 9243,
      "figures": 9244,
      "complétude": 9245,
      "compléter": 9246,
      "Brook": 9247,
      "convives": 9248,
      "censé": 9249,
      "élaboration": 9250,
[...]
